<unk>
<s>
</s>
,
.
the
de
of
la
and
to
et
a
à
le
les
in
des
’
l&apos;
is
en
un
que
d&apos;
est
du
that
une
for
pour
on
dans
(
)
qui
l
with
The
sur
be
are
au
:
I
d
as
par
this
it
pas
nous
by
you
ce
plus
have
vous
-
we
not
il
&quot;
or
ne
will
an
from
avec
at
ou
which
sont
aux
s
has
?
se
Le
can
&apos;
Commission
all
La
/
your
our
was
qu&apos;
Les
&apos;s
European
ont
!
être
cette
also
Il
je
its
Union
été
but
y
their
n&apos;
more
son
We
Je
votre
;
This
one
been
would
mais
ces
It
In
Europe
tout
s&apos;
comme
Nous
...
should
pays
fait
leur
do
they
must
Mr
ses
other
A
new
information
very
notre
us
aussi
faire
about
si
autres
En
time
there
européenne
me
tous
like
elle
only
re@@
-@@
également
bien
L&apos;
who
important
«
très
in@@
these
any
entre
n
services
même
%
sa
2
peut
so
President
if
–
qu
up
nos
»
out
no
people
rapport
1
S@@
question
were
part
politique
site
deux
service
place
point
membres
such
than
Monsieur
er
sans
ai
ils
ainsi
use
into
what
my
é
possible
3
when
his
work
avons
need
some
hotel
Parliament
countries
Canada
them
report
Parlement
make
hôtel
States
doit
may
o
Conseil
A@@
first
ant
leurs
Président
most
Member
i
situation
B@@
between
Hotel
D@@
now
well
Council
dont
e
L
non
où
Pour
able
T@@
many
support
take
M@@
If
P@@
way
t
public
E@@
s@@
États
ée
years
ans
made
és
temps
européen
because
ent
4
soit
he
m
C@@
Ce
Vous
F@@
EU
�
travail
Si
those
two
over
es
international
just
vos
un@@
G@@
encore
k@@
ons
cas
where
am
autre
contre
had
world
développement
You
“
L@@
c&apos;
sera
toutes
d@@
Dans
monde
avoir
K@@
programme
5
droits
personnes
policy
R@@
protection
10
being
t@@
ing
toute
year
afin
”
e@@
donc
good
H@@
M.
ées
cela
through
C&apos;
centre
On
était
ed
hui
fois
dé@@
peuvent
right
N@@
c
order
sécurité
car
conditions
system
b@@
&amp;
long
see
C
even
en@@
questions
produits
social
cet
système
g@@
action
j&apos;
ait
how
after
For
development
same
tant
want
jour
avant
moins
V@@
under
rights
marché
Cette
As
national
could
here
area
elles
used
available
W@@
There
within
position
page
chambres
p@@
market
economic
both
al
après
n@@
o@@
doivent
droit
country
ation
against
devons
vote
Un
ers
O@@
then
cadre
h@@
J&apos;
number
grande
does
vie
depuis
suis
er@@
groupe
partie
production
much
niveau
Une
faut
déjà
el
base
political
2009
own
De
without
te
toujours
Internet
cours
prix
compte
i@@
know
l@@
accord
before
matière
seulement
nombre
mon
c@@
manière
z@@
find
rooms
é@@
al@@
6
room
sous
help
vers
ré@@
qualité
vue
age
therefore
y@@
large
ez
directive
année
great
lui
lieu
20
sommes
m@@
30
chaque
lors
access
ici
still
future
politiques
human
pouvez
including
UE
mise
grand
plan
each
ti@@
free
f@@
get
économique
ville
products
ar@@
mesures
day
peu
années
course
say
À
set
avez
7
different
données
ch@@
exemple
end
moment
quelques
nouveau
last
dire
budget
informations
respect
application
view
today
think
voudrais
I@@
provide
minutes
Mais
J@@
v@@
her
fact
nom
institutions
demande
financial
France
That
an@@
certain
during
too
.@@
15
beaucoup
dit
clients
said
business
proposition
aide
&apos;t
process
believe
rapporteur
plusieurs
points
level
importance
issue
case
already
change
u@@
best
prendre
8
accès
certains
cannot
entreprises
gouvernement
recherche
nouvelle
go
dis@@
ensemble
version
2008
a@@
di@@
But
mettre
problème
Elle
D
mes
santé
ra@@
besoin
première
every
$
offers
solution
ro@@
type
programmes
r@@
alors
offre
since
ri@@
main
ate
unique
quality
domaine
Our
is@@
processus
w@@
attention
ceux
ants
To
efforts
commission
ensure
agit
pense
premier
example
Commissioner
concernant
li@@
However
They
re
seront
utilisation
trois
means
fin
transport
effet
2010
voir
façon
el@@
city
enfants
es@@
per
give
12
citoyens
homme
on@@
projet
secteur
aujourd&apos;
needs
face
k
All
life
permet
few
3@@
security
high
raison
local
debate
small
co@@
ts
back
three
What
Committee
proposal
j@@
savoir
era
areas
problèmes
parties
ma
propose
while
Ces
bon
International
im@@
health
2@@
sein
data
mesure
come
particular
ad@@
next
&#124;
common
&#91;
put
continue
000
ligne
concerne
nombreux
offer
ab@@
restaurant
notamment
ations
parce
environnement
law
st@@
&#93;
eux
He
de@@
24
selon
better
clear
agreement
based
or@@
Re@@
taken
measures
2007
U@@
société
it@@
pouvoir
government
nouvelles
sites
mois
Web
Au
aient
débat
eau
50
air
g
ting
date
ni
activités
femmes
région
problem
issues
ante
using
shall
given
population
citizens
why
necessary
women
utiliser
energy
u
avait
nouveaux
va
located
These
pendant
9
group
United
nature
eur
at@@
location
gestion
ar
children
bonne
h
Et
millions
less
ag@@
b
sujet
am@@
pourquoi
problems
working
Al@@
trouve
particulier
inter@@
always
communication
real
relations
laquelle
down
stay
excellent
Z@@
second
Par
again
rôle
Y@@
solutions
At
form
25
p
devrait
nécessaire
100
Madame
2006
article
In@@
total
hope
Cela
When
culture
em@@
further
si@@
simple
4@@
around
maintenant
&apos;@@
million
eu
full
far
Paris
did
however
personne
11
jusqu&apos;
contact
Des
et@@
affaires
_
With
And
soient
another
current
cause
global
par@@
jours
actions
ter
become
present

water
company
management
US
*
État
whether
ale
x
open
Group
vi@@
là
result
force
ated
établissement
e-@@
cooperation
coopération
présent
terms
entreprise
personnel
power
suite
role
président
research
mer
together
sector
contrôle
objectif
con@@
him
po@@
really
legal
per@@
aucun
making
eurs
experience
House
5@@
ine
S
bar
emploi
période
particularly
soutien
ted
initiative
members
specific
ie
pré@@
serait
chambre
petit
j
documents
close
food
as@@
direction
trade
terme
mis
km
opinion
done
activities
web
days
French
tes
old
Community
account
man
2000
´
major
impact
line
Ch@@
art
2005
personal
partir
image
project
forme
going
mieux
souvent
various
chose
formation
industry
européens
pouvons
©
ement
ap@@
chez
objectifs
der
obtenir
É@@
control
style
r
design
ressources
produit
pourrait
quand
lorsque
look
trop
différents
ailleurs
name
away
non-@@
region
staff
special
œuvre
environment
ac@@
comment
dialogue
family
dernier
Mrs
18@@
Con@@
assurer
companies
ou@@
Centre
ating
Mme
home
basis
résolution
list
whole
state
document
matter
grâce
occasion
regard
salle
croissance
op@@
provided
following
resources
Ils
ens
reste
x@@
New
le@@
include
nombreuses
etc
often
renseignements
several
fonds
os
18
19@@
ent@@
internationale
M
certaines
especially
avis
Notre
avenir
particulièrement
section
ales
wish
règlement
table
create
énergie
projets
general
liste
th@@
7@@
B
aucune
provides
something
40
font
off
zone
crise
World
due
qu@@
once
sens
private
subject
images
least
fully
près
she
call
views
T
décision
économie
increase
Mar@@
14
charge
R
key
commune
moi
2004
jamais
crisis
construction
money
choix
systems
No
sh@@
résultats
don
m&apos;
little
trouver
Ontario
aire
rules
16
res
États-Unis
dès
direct
growth
mo@@
+
ge
ask
O
faveur
dernière
price
situé
welcome
fonction
6@@
resolution
membre
8@@
via
justice
approach
aspects
found
aider
intérêt
pro@@
propre
cu@@
P
opportunity
TV
towards
period
euro
single
compris
itself
Nations
range
Canadian
organisations
donner
effective
allow
ité
ch
among
gu@@
X@@
Tom
organisation
interest
création
.com
start
building
rien
online
cuisine
message
Ar@@
ordre
others
value
until
besoins
things
third
étaient
9@@
existe
13
product
required
régions
jeu
carte
créer
man@@
hours
propositions
règles
om@@
quelque
als
sure
groupes
website
field
ex@@
met
surtout
titre
hand
valeur
00
ec@@
égard
having
source
expérience
Comme
bo@@
se@@
sur@@
ci@@
étant
to@@
DE
heures
times
stratégie
tions
aid
modern
su@@
bi@@
decision
®
six
améliorer
program
participation
technologies
gentlemen
celui
ver@@
An@@
z
sociale
community
donné
play
yet
tu@@
car@@
capital
général
ous
meeting
standards
person
systèmes
responsabilité
State
policies
assistance
let
ot@@
tel
positive
aura
réseau
taux
texte
taking
groups
ly
industrie
results
collègues
ol@@
thank
différentes
station
2003
address
il@@
juste
risk
traité
progress
internet
intérieur
be@@
Assemblée
safety
importante
quite
heart
du@@
tax
training
maison
projects
rather
possibilité
agree
contribution
economy
might
présente
Convention
Service
rate
lo@@
Commissaire
train
tels
17
abord
ance
side
violence
land
One
education
jeunes
actuellement
Madam
Treaty
mondiale
ni@@
text
code
vraiment
ais
F
ère
care
costs
final
pages
makes
forward
outre
file
framework
Members
individual
central
moyen
seul
game
ds
addition
f
ates
authorities
amendements
team
équipe
legislation
ins
client
mission
économiques
So
‘
êtes
light
puis
rendre
lot
called
pre@@
principe
ables
autorités
pris
administration
ve
ment
applications
distribution
responsibility
complete
show
forces
celle
av@@
reason
adopted
society
double
nécessaires
content
China
discussion
How
Windows
heure
vente
antes
espace
environmental
left
plupart
technology
difficult
proposals
enjoy
ques
amendments
agriculture
responsible
Tout
Ex@@
gi@@
lutte
performance
held
famille
commerce
rapidement
marchés
histoire
facilities
above
garantir
initiatives
software
instruments
ayant
months
related
…
young
easy
N
natural
four
techniques
ra
J
ru@@
customers
di
types
Co@@
option
pl@@
house
visit
réponse
risque
davantage
please
60
meet
liberté
simplement
ages
lequel
cultural
concerned
bu@@
recent
X
tra@@
disposition
note
travers
Cet
visant
répondre
greater
espère
traitement
approche
active
trans@@
ity
gens
commissaire
ai@@
consommateurs
mon@@
seule
frais
words
proposed
concurrence
Government
ladies
2001
currently
état
dispose
changes
cases
www.@@
behalf
so@@
never
semble
police
E
ton
En@@
séjour
structure
moyens
disponible
breakfast
essential
constitue
bring
—
ter@@
euros
share
strategy
els
ago
standard
past
favour
quatre
men
permettre
commercial
live
town
efficace
feel
involved
publique
keep
After
termes
ph@@
Avec
receive
domaines
éléments
cher
quant
autant
2002
improve
employment
début
res@@
ise
dernières
mode
objet
21
choses
sorte
clairement
simply
telle
disponibles
Ro@@
network
known
da
procédure
te@@
deuxième
no@@
0@@
tri@@
G
paix
needed
che
peut-être
devant
serious
parmi
short
village
designed
importe
member
technique
19
technical
européennes
competition
request
innovation
rer
aujourd
restaurants
ren@@
regional
0
argent
pay
crois
contenu
plutôt
Après
original
communautaire
té
grandes
beautiful
across
along
language
kind
grands
présidence
enough
installation
developing
quel
environ
National
event
hommes
do@@
collaboration
step
sûr
ite
législation
upon
tiers
normes
pratique
ét@@
user
amendement
écrit
Di@@
aires
changement
passer
financement
deal
events
below
relation
created
From
s-@@
strong
history
directement
appropriate
ta
Chine
plans
living
côté
haut
quelle
maximum
Pro@@
clearly
demander
ever
longer
loi
works
au@@
activité
EUR
rée
peace
négociations
ard
end@@
directly
pi@@
achieve
Please
can@@
ma@@
voie
week
either
options
music
instrument
ents
My
principle
ors
implementation
requirements
devraient
developed
themselves
..
22
pu
night
understand
sources
cost
ative
guests
RE@@
ir@@
adresse
red
pêche
Québec
test
der@@
comfortable
ally
députés
ça
siècle
American
port
actuelle
interests
passé
us@@
included
engagement
Par@@
workers
bus
Com@@
financière
pe@@
ic@@
nécessité
hard
parking
comes
origine
regions
anti@@
donne
conséquent
500
investment
idée
promotion
sp@@
€
An
top
meilleure
évaluation
ings
réduire
ob@@
ence
Mo@@
internal
intervention
mar@@
freedom
jusqu
semaine
1999
Car@@
com@@
200
vu
difficile
regulation
AC@@
try
propos
users
route
effort
Messieurs
looking
pourrez
prise
Présidente
wide
intérêts
exigences
EN
fi@@
seen
near
capacité
markets
lu@@
ge@@
ten
Bien
funds
uniquement
ves
true
for@@
27
cinq
five
ements
mis@@
throughout
succès
travailleurs
meilleur
enne
remercier
minimum
éducation
telles
thing
80
knowledge
distance
additional
Hôtel
century
over@@
concept
apply
ber@@
juridique
everything
adoption
foreign
soon
17@@
propres
significant
chance
amount
climate
série
ability
musique
ente
1@@
though
II
photo
démocratie
film
sub@@
outside
media
bl@@
Bo@@
received
Mesdames
consider
guerre
t-@@
ets
décisions
voted
Africa
includes
soutenir
progrès
23
sea
éviter
toutefois
étoiles
Y
parts
Tous
Toutefois
places
lead
space
ensuite
votes
um
20@@
doing
features
De@@
led
passe
IN@@
photos
Court
importants
ic
according
esprit
permettant
court
permis
D&apos;
concerns
pied
video
Depuis
professional
effect
office
card
tour
tu
democracy
articles
aller
reach
ry
act
communauté
ev@@
success
plein
prices
discussions
Cependant
fundamental
loin
suivant
benefit
fournir
aurait
session
ak@@
fut
Bureau
extremely
June
pratiques
negotiations
allows
responsable
return
took
cœur
essentiel
America
rez
cor@@
Afrique
porte
téléphone
bas
democratic
ing@@
add
condition
experts
a-@@
develop
Russie
traditional
tive
idea
dispositions
tiens
Russia
petite
ministre
levels
takes
rou@@
partenaires
By
eu@@
menu
May
early
mi@@
valeurs
efficacité
computer
Le@@
accept
mondial
th
term
durable
utilisateurs
Nos
Comment
states
vision
Presidency
road
entrée
friendly
assez
immigration
10@@
decisions
majorité
ser@@
trouverez
proximité
writing
cent
régime
90
eront
choice
²
offrir
ères
war
auprès
actually
coordination
ill@@
cependant
st
ways
zones
objectives
coûts
practice
aware
existing
St@@
ist
teur
re-@@
format
raisons
reports
established
majority
ateur
libre
vient
providing
min@@
exercice
big
sent
ding
ad
ideal
English
v
rapports
français
V
read
low
ke
voulons
PC
turn
body
ana
rapide
fichiers
70
euse
almost
ary
thus
package
She
participants
résultat
influence
Services
Cor@@
confiance
gouvernements
ca
credit
connection
rates
parler
intention
aspect
gra@@
sociétés
remain
bed
book
Th@@
technologie
context
voté
contexte
governments
Some
id@@
property
ne@@
rec@@
ites
Plus
peux
job
later
stage
Let
#
adhésion
doute
Enfin
Г
ach@@
travaux
school
nothing
souhaite
dollars
potential
principal
réalité
civil
exploitation
fort
objective
ten@@
mal
military
IT
représente
ger
renforcer
equipped
modèle
AN@@
ette
31
regarding
front
December
former
juin
del
famous
réception
nationaux
veut
committee
nationale
ia
Nord
go@@
accords
run
Dieu
procedure
send
ze
celles
commun
promote
move
principes
parents
atteindre
risques
déjeuner
files
situated
values
partners
28
générale
analyse
pool
treatment
concerning
rent
board
and@@
conclusion
he@@
bou@@
tion
me@@
perfect
durant
certainly
party
association
pu@@
guarantee
travailler
considered
ches
chacun
venir
Association
agreements
intégration
Mon@@
rés
26
God
concern
expression
Po@@
signifie
commitment
utilisé
rural
ies
Since
centrale
Minister
series
reform
stop
historique
è@@
protect
reduce
com
ig@@
obligations
sou@@
bureau
Sur
jobs
review
est@@
built
equipment
relatives
fin@@
véritable
protéger
gar@@
safe
importantes
Q@@
reviews
prevent
études
petites
déclaration
size
activity
Au@@
study
ouverture
increased
ski
agricultural
décembre
confort
reasons
fl@@
entendu
model
contient
infrastructure
haute
iste
link
financiers
response
collection
preuve
sense
effets
travel
appel
asked
ed@@
15@@
alisation
recently
gh@@
relevant
jouer
basic
discrimination
oc@@
Business
balance
creation
soins
K
cl@@
mind
réduction
ati@@
focus
San
mai
mentioned
puisse
funding
opportunities
introduction
euses
IC@@
choose
added
relative
accessible
cou@@
fight
publics
capacity
télévision
Germany
étude
walk
First
answer
avaient
whose
présenter
ème
South
quickly
benefits
Li@@
Do
volonté
mu@@
seems
email
ur@@
rest
opposition
child
presented
check
35
September
vigueur
everyone
Dis@@
institution
Debian
mer@@
programs
coming
Act
référence
consumers
sustainable
°
March
nationales
joint
nice
commentaires
centres
gamme
convient
although
UN
ines
changements
Lu@@
guide
moderne
y-@@
North
students
leading
Development
aim
sc@@
quoi
October
City
Turkey
den
all@@
completely
principles
rées
Montréal
IS@@
mean
Your
petits
January
300
H
lack
Ã
ina
augmentation
thanks
&apos;re
ordinateur
Bar@@
Iran
Cour
Affairs
appelle
vidéo
souligner
emplois
terrain
limited
ner
développer
Voici
king
ks
logiciel
click
fichier
demand
extrêmement
ats
hi@@
Finally
16@@
vo@@
mort
Inter@@
function
réunion
des@@
stabilité
ve@@
prises
ES
Elles
lien
départ
tenir
purpose
setting
Grand
quartier
sport
e-mail
tard
septembre
Article
secteurs
clair
pourraient
Sh@@
search
bar@@
ay@@
la@@
November
forms
entièrement
tr@@
billion
anti-@@
nuit
gives
Lisbon
langue
ness
Du@@
Su@@
comprendre
East
effects
Bank
death
sous-@@
impossible
ass@@
Dé@@
machine
Western
agenda
conférence
ler
tenu
leave
mot
AS@@
voyage
shows
ul@@
absence
liens
estime
higher
conséquences
carried
critères
follow
conference
devez
General
responsables
atmosphere
réforme
ded
beginning
ajouter
Turquie
Son
beach
details
consultation
suivre
facile
Lisbonne
ari@@
vrai
previous
parti
ir
événements
CO@@
phone
mars
fu@@
compétences
Central
profiter
entire
Allemagne
For@@
journée
idéal
dépenses
pourra
structures
Here
tradition
submitted
1.@@
positions
enable
Be@@
assurance
sound
matters
Per@@
complète
AR@@
janvier
love
Ac@@
reçu
commande
ho@@
speak
require
Ber@@
suivi
apporter
sk@@
indeed
crédit
Pi@@
floor
erait
ano
Amérique
permettent
piscine
Ad@@
octobre
utilisateur
architecture
Booking.com
Fonds
outils
Rights
acc@@
prepared
York
longtemps
chers
comprend
fer@@
ités
latest
existence
promouvoir
steps
Room
1998
materials
évolution
leaders
integration
lignes
German
conclusions
paid
ss@@
genre
pen@@
ell@@
satellite
usage
entier
clean
remains
tell
possibilités
crucial
&gt;
tor
ain
internationales
ade
Ré@@
@
enfin
Que
perspective
material
rue
press
tor@@
manque
victimes
situations
encourage
ay
amélioration
ju@@
numéro
Sch@@
half
ep@@
accueil
29
British
Office
lorsqu&apos;
montant
contains
récemment
novembre
enter
élargissement
terre
principaux
AL@@
proche
financier
derniers
&apos;ll
came
increasing
démocratique
ille
achieved
oil
présence
July
mal@@
Now
jeux
dimension
ms
priority
easily
époque
huge
ta@@
procédures
U
province
lis@@
niveaux
peine
chef
tique
goods
phase
désormais
contraire
independent
découvrir
income
variety
ff@@
Linux
parfois
impression
Constitution
month
efficient
onn@@
provisions
regulations
salles
friends
challenges
animaux
caractère
decided
arrive
Lo@@
shown
financières
amendment
reception
official
center
45
rons
multi@@
bit
facilement
Gu@@
Vi@@
plaisir
Saint-@@
Health
lit
mobile
build
fine
Lorsque
professionnels
guest
behind
vacances
ground
demandé
written
Toutes
milliards
exchange
successful
col@@
tools
connaissance
meilleurs
giving
UN@@
Park
highly
album
die
buffet
cur@@
radio
under@@
devenir
Sud
consumer
durée
ouverte
compromis
agreed
news
marketing
bre@@
nuclear
plage
transports
Saint
minute
Ri@@
isme
brought
terrasse
visite
Christ
divers
teurs
spécifiques
annual
permettra
similar
établir
agir
surface
payment
faisant
autour
alternative
ue
endroit
aéroport
links
Rome
ennes
Ainsi
Se@@
Gra@@
avantages
installations
dix
anglais
ouvert
capable
électronique
peuple
messages
corps
Tra@@
az@@
ty
w
procedures
humains
sommet
obligation
pauvreté
bois
University
labour
Ver@@
El@@
Qu@@
crime
invite
égalité
ban@@
perhaps
vont
fil
Q
expertise
ality
propriété
Man@@
patients
sociaux
Is
élections
mêmes
pression
bri@@
ters
ones
participer
lesquels
ties
Microsoft
supported
pleased
recevoir
bord
investissement
fins
poverty
ess@@
CD
Or
Chaque
14@@
pièces
creating
accepter
movement
Loi
pressure
closed
forte
learn
défense
reached
met@@
taille
W
status
attitude
continuer
mention
tés
2.@@
fonctionnement
investissements
ator
réaliser
hold
Ser@@
Programme
salon
April
word
transparence
ment@@
organizations
prochaine
comfort
organization
employees
parc
union
leader
external
veux
ä@@
ast@@
industrial
stand
Public
Therefore
amis
déclaré
businesses
supply
criteria
dossier
presque
faites
ber
sal@@
allowed
Of
paiement
substances
ant@@
telephone
offering
we@@
Ukraine
persons
liés
alimentaire
examen
commencer
Information
Amsterdam
hotels
ges
réglementation
customer
requires
out@@
urgence
statement
nations
équipements
box
mètres
&apos;m
analysis
juillet
fair
Site
frontières
enfant
1997
troisième
surveillance
milieu
Many
yeux
adopter
certainement
Conference
complex
supplémentaires
cal@@
garantie
drive
ér@@
co-@@
class
1er
park
lecture
express
late
devrions
While
organismes
avoid
retour
Un@@
communications
release
rich
,000
committed
growing
lives
longue
rel@@
publication
Today
privé
Bu@@
adopté
Italy
lines
budgétaire
totalement
mises
lois
utilisés
belle
respecter
bain
sti@@
Me@@
produce
Selon
communities
Club
Spain
tool
élément
appear
produced
tent
parvenir
méthode
planning
EN@@
0.@@
agricole
possibility
territoire
al-@@
ah@@
femme
gauche
um@@
demain
voix
Bi@@
ique
prend
fond
offered
dra@@
ka
présenté
lie
sales
thought
bathroom
o-@@
tin@@
rule
sports
cro@@
conflict
consommation
partenariat
fonctions
directives
Am@@
talk
médias
enti@@
published
erons
comp@@
constituent
int@@
stable
started
dés@@
poor
dec@@
alité
échelle
administrative
Fund
Security
ris@@
cr@@
hu@@
shopping
actuel
internationaux
anything
fo@@
ire
agréable
taxes
ateurs
á@@
reading
avril
ali@@
serve
12@@
savons
laws
combat
got
regards
montre
modifier
Or@@
élevé
popular
lesquelles
ble
largest
sanctions
etc.
cul@@
Berlin
ker
daily
1,@@
carry
enlargement
practices
happy
secure
Kosovo
compromise
elements
mé@@
campagne
uses
vise
Party
vital
jardin
equal
eaux
summer
dû
ful
villes
Each
normal
establish
aine
demandes
32
sociales
stability
draft
nor
Although
ori@@
profit
opérations
ane
=
écran
ah
fishing
record
affaire
om
solidarité
suites
istes
ang@@
destination
gaz
instead
extension
permanent
fondamentaux
airport
semaines
sort
coût
langues
useful
applied
quiet
correct
pri@@
danger
club
alone
marque
goes
arrivée
relating
ments
reference
lumière
représentants
says
employés
sé@@
Board
choisir
èrent
coeur
machines
possède
Ceci
bra@@
™
conception
calme
Spanish
appliquer
statut
circulation
erie
pe
consensus
est-à-dire
réserve
soir
conseil
rait
families
wi@@
accommodation
Go@@
connaître
priorité
publiques
Italian
lies
Val@@
í@@
item
morning
Why
gare
proposé
eg@@
charges
civile
remercie
émissions
method
résoudre
West
utilisant
head
personnels
Rooms
digital
connexion
fish
pose
immediately
énergétique
Portugal
weeks
difficultés
sud
exclusive
ll
nu@@
matériel
accéder
Can@@
motion
Im@@
historic
conformément
tez
diverses
d-@@
poste
entes
beyond
server
During
accordance
réellement
Italie
insurance
elections
ready
nouvel
ances
ö@@
outil
February
chemin
voiture
gas
maintain
likely
1996
Pre@@
emb@@
pres@@
AT@@
tic
dois
raised
challenge
begin
ro
bank
pass
IP
reality
exception
13@@
75
unies
vivre
task
populations
parole
tomorrow
Republic
gre@@
•
sectors
trouvent
Amnesty
armes
défis
Israel
self-@@
char@@
ist@@
pos@@
net
ancien
interesting
games
lier
convention
école
décidé
sais
ran@@
finally
monitoring
configuration
dev@@
lower
individuals
ES@@
DVD
IS
science
ON@@
versions
extérieur
co
advantage
legislative
connu
ke@@
Ne
solidarity
Mor@@
faible
Japan
Human
pourront
contribute
isation
restrictions
formulaire
Espagne
âge
USA
ot
éri@@
maintenir
continent
coup
consiste
che@@
EC@@
climatique
ac
paragraphe
stress
os@@
numerous
vaste
cra@@
modifications
CH@@
em
réunions
More
terrorisme
mor@@
methods
selection
interface
stra@@
oeuvre
download
figure
livre
consequences
ser
animal
Banque
modification
ourselves
cut
détails
expected
strategic
operations
puisque
rappeler
damage
ü@@
sions
comptes
idées
veiller
volume
expect
ideas
offrent
historical
exprimer
Grâce
Ju@@
transparency
on-@@
pleinement
supports
saying
bains
mots
Communauté
assessment
estate
licence
bonnes
mandat
envoyer
efficiency
étudiants
grave
Si@@
absolument
sometimes
réformes
cartes
Nice
approved
bal@@
ann@@
practical
our@@
ettes
extra
réseaux
étape
draw
African
République
worked
por@@
changer
comments
gen@@
heard
Pourquoi
utile
familles
enseignement
fall
aw@@
transfer
33
became
cover
ical
privée
puissent
implement
cre@@
partage
augmenter
purposes
tests
Groupe
matin
00@@
golf
farmers
scientific
reduction
méthodes
auteur
classe
priorités
causes
competitive
London
candidats
Air
communautaires
TE@@
chi@@
sw@@
Organisation
Her@@
player
ca@@
implemented
rester
attractions
accepted
jo@@
wanted
released
att@@
utilise
formes
Its
contribuer
partnership
operation
premiers
ME@@
starting
Ab@@
probably
Furthermore
applicable
affected
conseils
colleagues
presse
fera
goal
representatives
perspectives
http
men@@
rise
relationship
Quand
Villa
John
sortie
join
overall
rant
mm
calls
apartment
Church
wine
contributions
terrorism
long-term
garden
assure
agents
crimes
ce@@
lin@@
précisément
intended
ery
parfaitement
Note
don@@
speed
Mediterranean
février
liées
cer@@
réalisation
conscience
UR@@
feature
ours
ism
clé
échange
partout
lost
green
communes
conflit
medical
won
waste
ling
vent
ceci
ak
operating
collègue
cycle
bad
premières
fier
vertu
revenus
&apos;ve
pension
envers
sauna
circumstances
critical
160
complet
Veuillez
évidemment
Google
achat
Can
Ma@@
véhicules
principale
heureux
players
consulter
Best
créé
Pl@@
30@@
emplacement
interested
partner
sale
serveur
veuillez
généralement
anc@@
languages
terrace
contain
meilleures
ship
poursuivre
Policy
prochain
na
laisser
industries
ront
ering
IM@@
Sal@@
Afghanistan
purchase
fruits
exécution
Even
CA@@
district
principalement
gl@@
IT@@
holiday
scope
vol@@
screen
mail
yourself
sion
trying
skills
sait
integrated
hôtels
paper
Merci
Trans@@
AD@@
expressed
getting
ira
faits
1995
puissance
announced
acceptable
effectuer
iner
transition
ists
Agreement
His
Hu@@
onne
round
usually
served
Description
immédiatement
malgré
He@@
congratulate
loc@@
équilibre
voulez
....
tête
No@@
revenu
pour@@
cap@@
locales
gr@@
locaux
Click
ON
loss
Israël
cultures
sign
virus
accession
People
films
Thank
lic@@
Euro@@
associated
satisfaction
400
proper
comprehensive
devra
und
understanding
ba
highest
cities
Moreover
van
servir
lire
ensuring
SA@@
compagnie
erreur
shower
helpful
féliciter
Même
powers
entry
certaine
MA@@
covered
the@@
discover
cont@@
droite
discuss
américain
extent
victims
Alors
banks
cohésion
finance
opening
doubt
dem@@
signed
caused
indispensable
3.@@
couleurs
leadership
stations
Free
appartement
risks
logiciels
paquet
FAO
Tri@@
payer
bro@@
enregistrement
ends
tives
réservation
ER@@
militaire
meetings
ven@@
gratuit
én@@
har@@
Art
hom@@
Once
poser
fiscal
veulent
tée
priorities
CE@@
ambiance
placed
milliers
Directive
particulière
humaine
whom
4.@@
obtain
confortable
August
conservation
Quebec
af@@
manner
ls
biais
prévention
aliser
signal
Certains
Research
150
star
mener
proposer
voting
suffisamment
Ap@@
dic@@
nes
mat@@
her@@
trust
probablement
ya
ins@@
ci-dessous
Only
tourisme
iser
er-@@
Gar@@
économies
transactions
audio
monétaire
nation
maintenance
evening
Cas@@
Airport
walking
capitale
bien-être
connaissances
couleur
street
dirigeants
enquête
corruption
tons
confidence
Social
worldwide
iss@@
avions
prior
ron@@
Amendment
fruit
urgent
ps
adopt
val@@
ars
regular
buy
running
ologie
ley
average
Bar
Ireland
biens
innovative
Japon
PHP
Mal@@
Situé
processes
Justice
tandis
attend
Festival
actes
ï@@
thème
Maison
Ottawa
tre
limit
OS
emissions
aff@@
île
electronic
ences
rem@@
despite
ports
protected
maladie
principales
Brussels
effectively
warm
banques
ban
Chinese
went
select
vis@@
learning
pr@@
marche
étranger
Restaurant
selected
improved
encourager
ré
Christian
OR@@
else
hier
talking
up@@
Iraq
listed
commerciales
ol
scène
conséquence
attendre
devoir
aims
swimming
tur@@
Mu@@
items
spécifique
cas@@
violations
déterminer
ER
wood
RA@@
eng@@
decide
bas@@
track
instance
parle
Etats-Unis
1-@@
Premier
CE
dates
agencies
tif
cs
courses
Economic
iz@@
UK
flexible
devient
guidelines
super@@
acts
aimed
born
changed
Col@@
exposition
authority
Indeed
Royaume-Uni
Alliance
vit@@
souhaitez
are@@
pollution
ouvrir
réalisé
studies
modernes
forum
hors
continued
illegal
largement
financing
24h
border
absolutely
Votre
ez-vous
á
Comité
ha
efficaces
fax
nord
traiter
represents
responsabilités
obstacles
fa@@
modèles
atteint
br@@
fresh
hear
followed
tient
otherwise
den@@
presence
represent
fields
separate
séance
Then
speaking
considération
ste@@
34
en-@@
told
reduced
uni@@
considère
visiter
celui-ci
SE@@
ino
Are
gros
sujets
initial
defined
celle-ci
manage
comité
specifically
jeune
mainly
opened
pauvres
comprennent
maritime
managed
défaut
populaire
Paul
maladies
recours
bars
contacts
allons
tom@@
thousands
St
introduced
improving
complexe
gue
chômage
48
Mi@@
exist
nucléaire
Do@@
rapporteurs
étrangères
Not
poids
wants
Montreal
Most
faite
ft
prévu
gratuitement
le-@@
ere
supplémentaire
Cal@@
limite
cher@@
currency
Asia
Mon
catégorie
vérifier
stock
increasingly
spirit
not@@
Har@@
automatically
India
Secondly
visiteurs
célèbre
délai
transmission
renforcement
élaboration
dedicated
establishment
lieux
remember
Also
ely
reforms
scientifiques
season
registered
acteurs
lui-même
federal
Toronto
arts
36
budgets
saison
worth
Cliquez
fast
island
producteurs
qui@@
installer
traffic
24@@
delivery
lin
Fe@@
in-@@
médicaments
facing
voter
borders
VI@@
mouvement
95
produire
Agency
ver
Management
contrat
appareil
animals
began
Bra@@
participate
ministres
oral
generally
Madrid
personnelles
dy
visitors
wrong
strengthen
properly
prêts
associations
infrastructures
measure
1990
opinions
caractéristiques
namely
acheter
post
white
linked
professionnelle
becoming
champ
gérer
auquel
auront
tables
représentant
appartements
cré@@
fil@@
ion
empêcher
spa
CI@@
800
suffit
cliquez
soumis
sufficient
powerful
tera
evidence
ministère
harmonisation
Just
apartments
form@@
magnifique
définition
fournit
referred
ti
supporting
ral
sol@@
s.@@
US@@
communautés
ty@@
informed
ok@@
automatiquement
mains
sup@@
Te@@
inside
mobilité
moyenne
advice
reconnaissance
President-in-Office
Plan
hot
gave
television
pre-@@
detailed
commerciaux
discussed
cent@@
Ru@@
UNESCO
lan@@
hour
ow@@
ster
provision
pan@@
chaîne
événement
aimerais
respond
Fi@@
domestic
aliments
missions
pal@@
ture
my@@
disease
ains
5.@@
situe
ises
ck@@
fer
degree
ég@@
6.@@
Foundation
regime
firm
fication
aides
utilisée
Irlande
canadienne
save
tâche
vite
documentation
pleasant
race
présentation
closely
Center
map
demands
continues
courant
difference
compétitivité
commencé
recommandations
ll@@
ese
structural
ó@@
ancienne
totale
LE@@
française
vin
graves
bénéficier
anyone
stated
communiquer
Russian
commence
café
atif
favorable
réel
Ko@@
instructions
Res@@
LA
del@@
happen
diversité
2020
août
révision
fs
2011
notice
Luxembourg
tro@@
Royal
suit
Inc
passage
patrimoine
spacious
ei@@
fit
ered
juridiques
directeur
entendre
forest
entrer
ST@@
pleine
bur@@
Bruxelles
quer
hor@@
destruction
ther@@
recommendations
américaine
obtenu
pourtant
enc@@
dou@@
habitants
sélection
completed
poly@@
shared
himself
examiner
fe@@
200@@
vehicles
impose
refer
El
bs
los
PL
RO@@
networks
douche
promoting
stratégique
blog
ics
LE
touche
différence
naturel
institutional
fabrication
rend
display
cohesion
seem
agent
unemployment
1994
ish
tirer
looks
climat
artistes
Asie
zi@@
ators
moteur
exercise
criminal
performances
coffee
potentiel
menace
vehicle
uvre
Université
playing
ier
préparation
Rom@@
scale
tures
thinking
malheureusement
défi
claire
rest@@
né
id
played
sérieux
ology
buildings
critique
Tu
actifs
processing
sert
lutter
agricoles
Sa
ek
déchets
portant
cour@@
target
sitting
port@@
tru@@
vis-à-vis
ked
voice
micro@@
constitution
Jo@@
Est
canadien
bases
bons
forget
TI@@
99
cancer
path
télé@@
montrer
collective
iv@@
S&apos;
door
gn@@
bodies
engagements
déclarations
print
claim
dos
représentent
description
compétence
ang
entirely
parlementaire
air@@
campaign
pouvant
située
iter
prévoit
ada
inf@@
seek
repas
utilisées
ais@@
occasions
ID@@
au-delà
portée
tabled
ying
debt
fonctionne
consideration
ots
raise
â@@
Breakfast
accident
TA@@
contacter
organiser
Code
vol
alement
Pakistan
sept
annonce
THE
tre@@
tic@@
conf@@
trouvé
earlier
visa
définir
sch@@
rie
mountain
war@@
character
larger
fund
Red
ions
tiques
ores
Agence
arriver
ens@@
spend
Cl@@
reasonable
remise
prison
rendu
Guest
atmosphère
plant
exactly
600
extensive
courage
instant
Ti@@
contract
es-@@
religious
transfert
visible
zed
complètement
fellow
savez
peuples
erai
55
pon@@
expansion
partager
numbers
2-@@
System
artists
alimentaires
peaceful
EL@@
becomes
ellement
faciliter
Middle
beau
concert
appears
transparent
suivante
évaluer
allowing
physical
broad
clés
dealing
équipement
ç@@
ado
division
Mer@@
engage
myself
za
limites
button
fun
charged
porter
capacités
globale
ys
reducing
est-ce
édition
mou@@
garde
professionnel
navigation
conflits
accueillir
generation
régulièrement
centre-ville
secret
traditions
couple
fire
étrangère
disposent
hands
Gi@@
gain
fre@@
cat@@
Place
privacy
inform@@
compter
vais
indiqué
seraient
beds
lia
origin
ET
corporate
50@@
mémoire
camera
calling
anciens
unless
agriculteurs
identité
fra@@
utilisez
bes
Avant
chances
functions
piece
gen
developments
difficulties
membership
rencontre
seconde
tors
easier
37
Car
textes
shops
perte
ently
penser
multi-@@
wonderful
ess
prevention
orientation
disque
factors
trip
Mc@@
feu
statements
packages
effectivement
kitchen
budgetary
siège
facteurs
offrant
ja
britannique
quantité
organisme
well-@@
expert
store
post-@@
commerciale
joueurs
Trade
applies
Kar@@
ard@@
scientifique
reg@@
и@@
accroître
prêt
jou@@
Desjardins
culturel
Because
auto@@
metres
win
names
blanc
ously
duty
described
considerable
montré
Company
MO@@
Tour
3-@@
bâtiment
compensation
PT
database
immediate
fac@@
Voilà
65
Mag@@
fixed
recognition
log@@
Use
positif
cars
vert
books
Inde
gie
changing
competitiveness
atives
ki
reported
ner@@
autorité
correctement
speech
CR@@
accorder
recherches
gs
q@@
Aujourd&apos;
Ne@@
alimentation
ending
ple@@
compatible
onner
échanges
plants
e.@@
Lin@@
cards
plan@@
schools
precisely
objets
truly
SO@@
Day
lettre
work@@
determine
réponses
payments
aime
Museum
AP@@
42
recommend
consistent
Mont@@
kept
moitié
Conférence
EADS
ini@@
ast
vitesse
threat
choisi
spent
conduct
pieces
apprendre
acquis
conduite
unité
substance
elected
futur
interne
So@@
Sea
dehors
aurez
tourism
happened
possibles
Suisse
humanitarian
enterprises
Forum
fournisseurs
38
clientèle
identification
Schengen
Barcelona
diffusion
core
advanced
SP@@
routes
sol
fisheries
install
Green
To@@
excellence
félicite
interventions
conclure
carefully
Jean
Ni@@
finalement
presidency
reservation
reconnaître
models
pouvoirs
inflation
ahead
Rec@@
tendance
9.@@
CO2
offres
relativement
composition
excellente
isé
houses
écoles
préoccupations
partis
séjourner
off@@
failure
goals
cit@@
According
detail
fic@@
Kingdom
Media
sive
implementing
installed
relax
autorisation
ey
High
Don
Such
Great
religion
compared
Por@@
ns
exclusion
garder
--
Lors
Street
availability
alism
Strasbourg
black
aise
actual
tées
détail
Mat@@
We@@
classes
notes
ory
figures
parliamentary
p.m.
professionals
Pu@@
cli@@
summit
voitures
containing
préparer
numérique
compliance
con
copy
iques
passed
ini
connected
chosen
furnished
module
AM@@
seven
Clients
advance
h00
identify
species
someone
Located
Em@@
election
trac@@
trafic
Unfortunately
EC
match
Deuxièmement
adi@@
chefs
concrete
régionale
constater
devront
LA@@
Min@@
pay@@
mas@@
post@@
improvement
arrival
dynamique
flexibility
Any
ring
standing
véhicule
soleil
vérité
implique
stocks
applique
Fin@@
Pe@@
arguments
atifs
villages
conçu
génération
enn@@
river
totally
defence
év@@
HIV
extérieure
Prix
tourist
attempt
Safety
og@@
seriously
humain
Du
Cam@@
tres
chan@@
ri
territory
suggestions
illes
tion@@
01
arms
lev@@
partenaire
plats
diversity
Pendant
negative
disponibilité
TE
5-@@
min
consumption
balanced
gro@@
Every
\
elegant
Action
militaires
crédits
dis
culturelle
sections
néanmoins
keeping
sets
SA
IL@@
migration
Where
cm
agency
discuter
8.@@
matières
lac
letter
differences
David
At@@
él@@
Dès
marques
ably
ile
a-t-il
acquisition
ff
tab@@
moving
Education
ign@@
economies
ami
2,@@
experienced
tenue
constructive
adaptation
ach
règlements
oublier
violation
NE@@
i-@@
sides
yesterday
acte
40@@
ure
vues
founded
zing
appareils
Financial
retraite
indique
auxquels
ê@@
onné
ide
Bal@@
dangerous
publié
suitable
tôt
statistiques
planification
naturelles
saw
fan
mp@@
Find
Z
export
moments
hy@@
accent
relatif
listing
element
affect
wait
amour
tarifs
Prime
bouton
discours
brings
amp@@
candidate
Bou@@
viol@@
25@@
supérieur
procéder
desire
responsibilities
ci
FR
pa@@
sensitive
issant
établi
signature
Wi@@
su
ades
passion
contained
1992
de-@@
débats
arrangements
primary
doesn
régional
maintien
arrêt
Cap@@
weight
helping
Traité
Ste@@
gri@@
genuine
foot
blo@@
Fl@@
modified
hal@@
Greece
rac@@
mark
stone
Irak
pièce
sen@@
sign@@
except
didn
hab@@
itaire
write
aircraft
chiffres
launched
beauté
picture
U.S.
Spa
lancer
aborder
soi
inclusion
inscription
fortement
issent
bout
naturellement
strongly
tifs
hiver
livres
riche
espèces
avais
avantage
spending
physique
brand
assist
IN
provenant
AL
clo@@
appelé
paragraph
télécharger
DE@@
98
Pri@@
fuel
introduce
oui
monitor
one-@@
8-@@
regulatory
Fondation
OS@@
greatest
sensible
simples
wh@@
particuliers
ath@@
analy@@
asile
Canadians
actif
Program
skin
ING
locale
voyageurs
story
deliver
forced
étrangers
PDF
ko
prestations
sex
baisse
lits
luxury
Latin
pensons
papier
automobile
LI@@
sell
multiple
TS
seeking
élèves
ata
annoncé
registration
governance
dés
dri@@
Is@@
Ben@@
Balkans
résidence
approximately
compagnies
évident
festival
Gen@@
hand@@
réfugiés
argument
ame
Sol@@
host
back@@
seuls
hall
update
med
bil@@
contemporary
MP@@
inform
Global
adoptée
bles
souligné
truth
examine
producers
Foreign
sauf
spread
sy@@
War
issued
berg
humaines
Switzerland
cho@@
evaluation
ised
ell
appui
helps
mettent
privées
luxe
accueille
coffre-fort
délais
Irish
bear
monnaie
prepare
expériences
certification
taxe
studio
Bel@@
definition
Costa
vins
pat@@
faudra
break
reprises
livraison
chauffage
impôt
relatifs
device
64
évidence
concours
opération
dette
serez
ck
inclus
circonstances
constant
investments
fils
bath
annuel
équipées
south
hausse
quotas
immigrants
ste
N&apos;
rage
rep@@
gagner
7.@@
accidents
granted
ards
submit
avance
Ou@@
ara
explo@@
remove
ders
dynamic
esse
Toute
pleasure
exceptional
tennis
typical
winter
sortir
closer
window
rare
charme
informer
imp@@
non-fumeurs
memory
fear
Char@@
apprentissage
unable
Star
monetary
traite
bor@@
devenu
det@@
travaille
DI@@
multiples
Fu@@
voire
healthy
treated
défendre
Commentaires
transformation
fying
failed
emergency
mauvais
Institute
touch
réussi
q
е@@
agences
remplir
ur
publications
grounds
ACP
recommended
ép@@
hébergement
combined
woman
ear@@
Malheureusement
Afin
250
08
alis@@
essayer
commitments
emp@@
torture
vaut
pure
maisons
espérons
Other
approvisionnement
4-@@
Ter@@
provincial
passagers
villa
Ge@@
unacceptable
residence
Barroso
Tur@@
contrôles
bringing
adapter
Firstly
attacks
sentiment
SI@@
eri@@
massive
Européens
Food
Des@@
ws
fied
tableau
Canadiens
WC
massage
addressed
ous@@
clause
réussite
î@@
cia
crises
ee
Parmi
flux
marchandises
1993
traités
PR@@
lat@@
PA@@
identifier
clubs
joue
identity
Bor@@
encontre
07
confirmation
Inn
protocole
indépendance
beauty
ID
élevés
disposal
précis
dan@@
demeure
comportement
adequate
moral
strategies
square
elle-même
logique
prochaines
faisons
Eastern
Express
pouvait
hon@@
qualified
requests
Néanmoins
fri@@
flight
réjouis
accounts
urban
limiter
ratification
Grèce
entitled
engine
IR@@
ancient
auraient
dur
radi@@
officials
proposés
unit
Facilities
itation
gouvernance
agence
générales
guarantees
Bush
erreurs
cri@@
proposons
destinés
ly@@
establishing
servi@@
noms
ato
erez
aill@@
85
armée
Two
Mac@@
Summit
Those
ferme
controls
determined
soci@@
publicité
lib@@
See
tw@@
QU@@
efficacement
libertés
contrôler
nearly
kilomètres
valid
outcome
outstanding
PS@@
category
waiting
achieving
reconstruction
app@@
unfortunately
wing
soutiens
flow
ex
ash@@
awareness
continuing
attack
Pal@@
critiques
Environment
Lord
stratégies
Swiss
peau
bio@@
alized
tâches
so-called
lié
requested
Another
organised
claims
color
Cu@@
Protection
réelle
précédent
Women
representative
finances
Fer@@
directe
Palestinian
pictures
moindre
mécanisme
lancé
recovery
Dec@@
tarif
ited
drawn
alised
PS
attirer
tried
def@@
intégrer
dossiers
parlé
shop
ase
Very
storage
ena
ica
mécanismes
ological
contrary
asking
son@@
stars
career
transaction
pou@@
limits
360
ising
Non
Obama
présents
wishes
sciences
ships
alisé
Tor@@
courts
organisé
bénéficie
appointed
football
satisfaire
register
WTO
aries
fans
operate
tim@@
goût
règle
sun@@
tis
tonnes
spécial
,@@
souhaitez-vous
mandate
Europeans
clos
resort
title
éré
essentielle
op
portes
Home
patient
Take
entière
préalable
exemples
ney
soin
viennent
Palace
exactement
Suite
Wi-Fi
atrice
extended
putting
heritage
equality
Ci@@
écou@@
postes
Sp@@
réduit
dollar
devait
rati@@
fondée
traduction
Sk@@
Ren@@
7-@@
deep
youth
09
sold
Sub@@
mol@@
matériaux
drugs
ef@@
lo
ha@@
Gal@@
S.@@
fondamental
high-@@
comporte
Mac
felt
favoriser
sharing
CC@@
sau@@
TR@@
о@@
reflect
manger
dée
Software
excursions
combination
ov@@
aj@@
fy
ceux-ci
enables
commandes
derrière
41
belles
essentiellement
Sans
EL
trait
travaillent
budgétaires
cru@@
reli@@
décider
zz@@
approval
revenir
orders
PE@@
perfectly
stands
trading
neuf
nearby
advertising
laid
error
Arts
с@@
offices
explain
quelles
Est-ce
ave
compl@@
ended
donn@@
Appartement
inclure
courriel
0,@@
tours
boutique
friend
signé
identified
St.
construire
ole
ung
considérable
44
aus@@
m2
devices
mérite
AC
utilisent
obtained
relaxing
Sa@@
voit
interdiction
launch
Pro
ving
raient
remind
exige
excessive
weapons
Sou@@
correspond
stade
hauteur
Permettez-moi
observation
Société
reconnu
Thus
Ses
president
zation
tical
politics
LO@@
.org
int
isse
Before
label
père
tel@@
ye
Sur@@
Enjoy
mondialisation
39
assets
présentes
OECD
structurels
imposer
ventes
espoir
ko@@
surrounding
mère
background
planète
carrière
Cre@@
videos
appeal
facilitate
provinces
conventions
humanitaire
gues
convenient
ONU
personnelle
una
mental
restent
Fran@@
noter
Japanese
concentration
ons-nous
yer
classique
centaines
OMC
gets
lou@@
réduite
TO@@
sexual
Pré@@
h30
reliable
inc@@
San@@
établissements
Op@@
Gaza
rap@@
pourrons
vidéos
regret
driving
éli@@
ect
ail@@
conciliation
engager
tics
abilité
substantial
démocratiques
ama
components
Department
rail
forêts
bureaux
ger@@
Mexico
foi
considéré
riches
cad@@
AS
Rules
06
examples
Rotary
Etat
Guide
Nevertheless
conducted
montagne
eries
extend
placement
43
combien
indi@@
sun
considérer
réalisés
Yet
convinced
organized
ok
Casino
charming
targets
ki@@
VIH
Nor@@
ress@@
Pierre
moyennes
conserver
allemand
expensive
Belgium
donnent
spécialement
lorsqu
ros
chen
ari
IP@@
neither
05
CS@@
pp@@
Santa
Book
middle
musical
coin
Mil@@
retard
lose
meaning
bientôt
libéralisation
soft
Thanks
mechanism
laisse
obviously
exercer
familiale
turned
dépend
Mr.
Belarus
involving
FA@@
proportion
Friday
colour
ambitious
Hol@@
attractive
translation
educational
dinner
knows
booking
star@@
coast
concepts
expliquer
serves
uns
formats
rock
inv@@
tan@@
ries
las
Dublin
eux-mêmes
Network
camp
titres
initi@@
Chi@@
cable
perdu
dimensions
Control
soutenu
apporte
confortables
а@@
essence
fill
souhaitons
PA
Open
meters
CN@@
pun@@
Turkish
cel@@
alise
ency
Director
sts
supérieure
isés
invités
TH@@
différences
strengthening
boutiques
kers
dia
conférences
viens
watch
Cuba
tional
modes
ong
Er@@
sessions
ish@@
olo@@
ian
hair
Fo@@
tie
hé@@
taste
proud
Ag@@
souhaiterais
ché
previously
ut@@
vieux
Martin
élaborer
26@@
PRO@@
termin@@
voisins
cal
trou@@
Time
américains
vivent
expenditure
tasks
supervision
student
updated
an-@@
records
PME
verre
independence
Mary
prime
locations
asylum
Both
improvements
rightly
appreciate
glass
AG@@
signe
suffering
taxation
enormous
attentes
Democrats
faith
percent
default
aver@@
exhibition
enhance
négociation
appar@@
School
Ho@@
recognized
surprise
crée
6-@@
eusement
développé
énorme
factor
involvement
est-il
Deux
venu
plages
flu@@
intéressant
tend
ISO
strict
ouvre
consommateur
bedrooms
Dom@@
platform
mutual
judiciaire
rend@@
decorated
Ger@@
comply
disposer
travaillé
guaranteed
testing
assume
sse
inscrit
resulting
TO
MC
spaces
96
magazine
huit
planned
viande
Van
participé
Comp@@
intérieure
fitness
donnée
strength
convergence
Ensuite
ongoing
construit
chargé
Over
consultations
Real
land@@
EU@@
climatisation
honourable
manufacturing
dishes
na@@
automatique
Regulation
délégation
mass
browser
CON@@
resource
récente
Vo@@
difficiles
mettant
effectué
presentation
esp@@
peoples
conver@@
rejoindre
sed
sel@@
conduit
Pra@@
rapid
rai
Barcelone
dor@@
colleague
Florence
Premièrement
mechanisms
suggest
parfait
banque
elling
Poland
dez
prennent
finale
fee
constantly
leisure
asi@@
pétrole
accessibles
helped
Ouest
supprimer
modules
On@@
speakers
équitable
dro@@
ain@@
Agriculture
qué
parcours
pointed
flexibilité
cam@@
Londres
fié
faced
represented
desk
Netherlands
chercher
technological
Pol@@
3D
father
Musée
concernés
wall
souhaitent
Malgré
97
reproduction
AV@@
proof
vit
Présidence
essentiels
expectations
donnant
conclude
côte
lam@@
précise
fiscale
mauvaise
vou@@
leads
explique
ero
paiements
Square
marine
esti@@
1991
Bro@@
Under
bel
blood
métro
obvious
actuels
Prague
whatever
ues
destiné
mit@@
nier
bande
Old
gam@@
talks
terres
experiences
older
gone
primarily
passant
a.m.
électroniques
PO@@
beaches
Executive
actuelles
ice
gy
garanties
delivered
contra@@
historiques
contents
prévue
apparaît
disposons
River
AIDS
willing
Kyoto
protecting
vendre
Plusieurs
27@@
Romania
password
paquets
contenus
cold
rice
régionales
cookies
bat@@
intermédiaire
Michel
perdre
équipes
web@@
rég@@
Life
fraud
adultes
vieille
ball
Project
III
Ma
mod@@
Aussi
heavy
bancaire
Qui
temporary
railway
ss
hôtes
Energy
tension
od@@
Charles
privés
ore
cesse
ran
Desk
casino
speci@@
naturelle
organise
ton@@
noise
étais
bon@@
renovated
eyes
souligne
holding
alization
permission
biggest
diseases
fourni
Fra@@
pointe
USB
bel@@
Despite
Sar@@
confirmed
dy@@
alisme
liée
conversion
gé@@
La@@
issement
soutient
controlled
Their
grow
occupe
AND
réflexion
Belgique
distinction
Design
bedroom
consists
ational
aut@@
Église
indicated
fon@@
joué
reserve
joined
parlementaires
consent
avi@@
explore
pain
préserver
furniture
north
eight
Hotels
02
graphique
author
noted
department
syn@@
quick
120
acting
calendrier
Pen@@
vendredi
fou@@
fighting
eat
dommages
Law
étapes
cé@@
sor@@
returned
catégories
feeling
Sunday
effectiveness
tran@@
espaces
existent
assu@@
Roma
Louis
pieds
trees
chacune
southern
isée
Monday
acy
rendement
49
arrière
object
servi
ax@@
indiquer
prévenir
Robert
tenant
avancer
firms
garage
contribué
quels
exclusivement
croire
urge
Eu@@
Market
journaux
inscrire
courrier
merely
ation@@
sav@@
dom@@
Last
oy@@
réserves
basée
preparation
lecteur
Dra@@
fun@@
dining
delay
Pologne
Report
Section
Private
cin@@
by@@
52
resolve
ella
MS
ONG
mann
ging
soumettre
solide
musée
Gentoo
pol@@
marks
raisonnable
ascenseur
abroad
Welcome
approprié
700
theme
Rob@@
Get
interprétation
Del@@
majeure
focused
Qu&apos;
eff@@
dies
ind@@
contenant
fédéral
ean
depending
websites
Assembly
OR
pm
band
finding
Bay
relever
head@@
manifestations
hit
amounts
zer
decades
ap
iller
gender
entretien
arti@@
impressive
meat
Games
ita
pil@@
introduire
stri@@
1989
rouge
paramètres
Due
perform
opposite
NO@@
vivant
entered
creative
offrons
occupation
Ministry
somme
intervenir
RO
Roumanie
mother
cy@@
régimes
Enterprise
aqu@@
faudrait
church
billets
CD@@
regularly
holidays
happens
catalogue
exists
shape
nez
nom@@
vocation
Quelle
accepté
vast
marked
mot@@
Czech
Front
paroles
pas@@
kinds
nettoyage
itu@@
Ministers
sem@@
informatique
Music
Greek
intentions
smaller
fenêtre
liv@@
discussing
tellement
ement@@
reprise
net@@
logement
covers
Beach
dent
frontière
cons@@
operators
dons
œuvres
transportation
water@@
bâtiments
onto
alternatives
honneur
drink
observations
ing-@@
ert
ona
approbation
comm@@
conclu
Strategy
GDP
eye
Tu@@
Tro@@
reply
lake
suivantes
Hor@@
endroits
cash
My@@
tar@@
ads
étage
ration
concentrer
angle
tour@@
fees
approuvé
touristiques
ken
length
successfully
т@@
ze@@
présentent
im
électricité
lique
limitée
Quel
cosy
procès-verbal
yes
réserver
TA
Federal
investigation
surrounded
variable
Black
listen
leaving
revient
ths
variété
statistics
relaxation
demandons
constitu@@
significantly
utiles
outdoor
named
ord@@
connaît
medium-sized
suivants
increases
PIB
rappelle
dat@@
compréhension
Dutch
solve
théâtre
différente
ping
Net@@
edge
Apple
Agenda
metal
drawing
Player
harmon@@
thereby
ga
OU@@
operational
associés
gé
quée
OM@@
bonus
wn
Guests
von
considérablement
thèmes
47
chinois
gent
Special
Met@@
owner
ène
grant
subventions
SS@@
ois
Whether
propriétaire
découverte
driver
46
Kong
chercheurs
Sy@@
logo
trial
Institut
leg@@
confidentialité
talent
améliorations
AU@@
Second
lundi
arg@@
Av@@
owners
contrats
rop@@
destinées
lement
auteurs
composé
pass@@
conven@@
0-@@
catastrophe
personally
involve
mag@@
ón
Ku@@
appels
library
silence
basé
ail
sen
aci@@
pén@@
profile
Peter
è
Uni@@
différent
possibilities
refugees
Lake
qués
monuments
rated
fusion
copie
teams
fail
rapides
dealt
Corporation
ret@@
Station
arm@@
commissions
profits
signs
Charter
profession
Minutes
chapitre
moved
pensions
2012
info
Good
Ban@@
ote
cab@@
Mé@@
burden
51
highlight
ature
drug
Michael
ide@@
sé
owned
fraude
fournisseur
Paper
Geneva
sable
Gro@@
ham@@
rejected
réaction
thé@@
bridge
anda
requirement
Certaines
château
maintained
magasins
Airbus
inacceptable
agissant
Flash
reporting
removed
terroristes
down@@
delegation
define
individus
industrielle
chain
Box
implications
facts
proposées
ined
anniversaire
fondamentales
notion
Sweden
NL
seeing
merci
appropriée
exportation
ash
occur
Bri@@
ched
opportunité
analyses
on-line
amor@@
conduire
War@@
régionaux
Exchange
DA
affairs
wealth
script
refuse
valuable
в@@
nucléaires
eligible
mus@@
naturally
isi@@
ware
navigateur
aviation
weather
amongst
temperature
confirm
este
hundreds
estimated
échec
ill
dre
Golf
porté
pic@@
Ara@@
salue
boat
Question
hol@@
député
confrontés
producing
streets
savings
parti@@
disaster
allant
alités
duc@@
van@@
gan@@
lots
ager
êtres
{
déb@@
mix
abuse
latter
rement
Pays-Bas
binding
Moyen-Orient
Who
amenities
wines
sky
Society
arch@@
rier
showing
mountains
voyages
walls
champs
capitaux
adults
landscape
reserves
voulu
spo@@
financer
Cro@@
mine
Washington
Yes
miles
étroite
pierre
answers
AB@@
libres
lig@@
lets
portable
ick
culturelles
observ@@
renewable
Tre@@
présentée
index
Wal@@
Chamber
OCDE
vois
quement
serons
spéciale
offerts
sl@@
selling
Shi@@
p.
envoyé
hautes
72
03
rendez-vous
sons
compar@@
manager
filles
Austria
presents
imposed
atory
mobility
aurons
justement
OF
auxquelles
tis@@
paysage
tea
tat@@
displayed
susceptibles
suppression
législatif
died
ose
Will
isant
investisseurs
pollu@@
cheap
démarche
ically
envisager
minibar
Culture
Pourtant
se-@@
environnementale
gou@@
vouloir
discovered
audience
EX@@
communs
cot@@
wind
pul@@
relatively
cop@@
peur
officielle
immense
né@@
dly
sm@@
hydro@@
liber@@
opposed
consul@@
dance
auparavant
lancement
56
exprimé
pretty
ene
judicial
mots-cles
past@@
corner
block
master
Parc
installé
lounge
Cou@@
depends
Tribunal
territorial
treaty
Rule
retrouver
minim@@
déc@@
contribue
doubles
Oui
représentation
lav@@
1000
propriétaires
}
semblent
Gr@@
66
orientations
White
spring
oli@@
passengers
ster@@
traditionnelle
Affaires
territoires
alist
chiffre
spectacle
voici
fiée
Brazil
température
tot@@
entra@@
copyright
rs
chair
accurate
feed
nourriture
complexes
Jesus
pers@@
effectués
som@@
investir
finished
noir
géné@@
superbe
housing
assi@@
Bon@@
GNU
traitements
Adobe
Korea
née
actu@@
ello
constituer
low@@
artist
venue
hot@@
emphasis
eter
Bre@@
mit
directed
permettez-moi
remote
happening
Prodi
facteur
majeur
cross-border
régler
universal
Island
Bur@@
espagnol
teaching
killed
understood
armed
Plaza
technologique
portent
idéale
ambition
dimanche
set@@
providers
recognise
Lam@@
fonctionner
prove
stages
canadiens
Based
adap@@
steel
adresser
concerts
maintaining
wor@@
program@@
3,@@
invited
remaining
intellectual
aliste
carbon
sec
ine@@
entertainment
lock
connue
tage
As@@
accrue
enregistré
King
Fre@@
changé
quent
sexe
concrètes
Regional
sing
minorités
formal
chant
Ob@@
PC@@
Family
George
terminer
garantit
involves
centrales
convaincu
pacte
welcomes
largely
28@@
Sony
infection
naissance
decision-making
proposée
dispos@@
04
collections
russe
Manager
arrêter
organisée
futures
Rem@@
behaviour
shares
capables
JavaScript
Pas
milk
contracts
Go
proches
load
nés
MA
23@@
receiving
vulnerable
demonstrate
accompli
organes
facility
wireless
décrit
lar@@
familiar
characteristics
Israeli
obligatoire
recognised
sang
edition
iné
equally
fasse
86
fol@@
copies
ED
emphasise
Atlantic
earth
invest
exécu@@
dangereux
ticket
équipé
Euro
oi@@
Etats
collected
ever@@
quarter
Through
Online
accepte
Palais
navires
hearing
solid
electricity
atique
dit@@
ning
îles
Dr
customs
settings
détente
HTML
afternoon
Hel@@
connect
pur@@
Jean-@@
accompanied
BR@@
waters
humanité
ès
toi
émission
véritablement
fournis
exceptionnelle
topic
intégré
awarded
holds
mené
Zimbabwe
participant
enforcement
units
remarques
difficulté
homes
Marie
whilst
balcony
combating
nommé
Unies
boîte
chimiques
four@@
mentionné
faibles
Lim@@
directrices
appuyer
Data
plays
rencontrer
bottom
lait
politicians
tribunal
of@@
Thursday
mi
liability
ow
bru@@
worse
shi@@
weekend
drivers
Saturday
frame
mini
repeat
visites
transit
résistance
migrants
dues
codes
definitely
autrement
phénomène
command
2.0
roads
Children
chem@@
Meeting
correctly
incidence
Port
director
seat
competence
Hall
command@@
PI
lists
Cer@@
Wil@@
Grande
ras
fais
,00
proposes
ethnic
correc@@
montagnes
fashion
Ph@@
circuit
tou@@
northern
ought
exit
Suède
Anti@@
advantages
Seigneur
nbsp
discipline
voluntary
degré
lit@@
nation@@
entend
électrique
Corée
isées
venant
extérieures
Bl@@
allez
Win@@
mines
careful
Chambre
augmenté
fondamentale
license
quotidien
diverse
addresses
appeler
gratuite
finish
mo
prefer
indépendants
spot
AF@@
emerging
domain
modalités
fie
conformité
New@@
DC
actively
stu@@
sin
reti@@
coll@@
chi
intense
Allah
collabor@@
conflicts
distributed
GE
apo@@
remarque
imag@@
2013
nécessite
Fil@@
montrent
unto
permettront
k-@@
forests
COM
Très
indépendante
intégrée
invitation
defend
ération
san@@
mouvements
productive
LES
terrible
manufacturers
recommendation
représent@@
rues
p.@@
birth
lands
PL@@
offert
i.e.
indépendant
71
visiting
west
university
civils
CF@@
avancées
éliminer
exact
indications
54
uti@@
replace
updates
ward
recettes
bibliothèque
Inc.
1980
ace
Sam@@
creates
starts
indicate
&apos;d
Northern
debates
dial
bound
properties
fixe
conna@@
log
loisirs
aérien
DS
Cat@@
committees
motifs
recommandation
teachers
Transport
count
lab@@
journey
moi-même
vols
rythme
handling
caractères
isent
Rou@@
Resort
minority
53
Hong
bénéfices
concernées
ron
Brésil
éra@@
répond
texts
ben@@
similaires
follows
Jacques
dîner
Immobilier
medium
ouest
Pan@@
59
ires
declared
AN
nor@@
frequently
qualifications
heat
Web@@
til@@
Sun@@
intend
performed
interior
pertes
OC@@
satisfied
-up
tal@@
comprenant
color@@
camps
collect
repose
specified
penalty
bul@@
glad
a.@@
GR@@
ick@@
runs
dge
chat
ajoutée
museum
assess
existants
recru@@
PD@@
ATION
bateau
équipée
appartient
Méditerranée
attaques
IA
92
ía
Mari@@
concluded
encies
categories
Pat@@
insister
culturels
blue
Live
medi@@
11@@
precise
dépôt
Cup
écouter
combattre
reflète
demonstrated
Mus@@
celles-ci
IF@@
Arab
extreme
spécialistes
aged
ford
Découvrez
suppose
continu@@
Access
ci-dessus
Hy@@
visited
criminalité
dictat@@
let@@
citoyen
ily
retirer
toward
acteur
parlons
Garden
cast
Milan
continuent
longues
officiel
ingly
exc@@
A.@@
ories
ala
t&apos;
église
élection
conviction
abus
candidates
pratiquement
speaker
dus
ba@@
dure
ablement
Well
Technology
ong@@
essentielles
nutri@@
attendent
duties
z-@@
décor
commerci@@
relève
Legal
stratégiques
oun@@
li
Conditions
PE
root
imagine
deposit
fonctionnalités
sez
inspection
adapted
avion
environnementales
et-@@
Quant
posi@@
permanente
formed
tation
bénéficient
tier
fondé
activement
Instead
interdit
discharge
ñ@@
GA
д@@
limité
magnificent
burg
formule
representation
observer
meant
étendre
ut
gains
intellectuelle
attaque
exclusively
declaration
renouvelables
Genève
te-@@
two-@@
gardens
obstacle
balcon
progressive
oppose
lunch
preparing
sli@@
fête
présentés
indication
resolutions
connections
inspiration
ST
recorded
joueur
confi@@
samedi
ening
NATO
contre@@
9-@@
Swedish
situés
ampleur
1st
internes
respective
respected
journal
prévues
Ladies
ciel
bot@@
cross
plénière
remplacer
James
beaux
BO@@
touristique
vis
bruit
combine
windows
jeudi
para
aria
tionn@@
norme
appliquent
fonctionnaires
suc@@
CL@@
tabac
banking
affiche
italien
bin@@
characters
-0@@
ani@@
regrettable
stockage
Year
Gl@@
Autriche
élégant
divided
rapidly
A.
hi
télécommunications
widely
conditioning
vac@@
chemical
Be
forêt
ric@@
part@@
globalisation
remettre
destinations
dr@@
transmettre
collecte
bly
investors
sec@@
auberge
channels
tin
10.@@
kg
CA
Does
positifs
dess@@
listes
Lan@@
tenter
ges@@
component
progresser
conforme
huile
veille
bienvenue
remboursement
tiendra
ordinateurs
gift
fru@@
equi@@
welfare
jeunesse
existantes
.ca
audit
désirez
menée
Loc@@
inclut
Bas@@
Earth
Studio
68
taxi
proved
dessus
tickets
écoute
Procedure
vérification
plu@@
récentes
expositions
carbone
devenue
Ville
organic
Dr.
lobby
stronger
hyper@@
petit-déjeuner
Following
functioning
lift
ung@@
ye@@
ass
considering
mène
requis
Via
criticism
anim@@
IV
terrorist
enregistrer
université
Within
déf@@
choices
surroundings
USD
provenance
treat
panel
constitute
adéquate
objects
low-@@
ction
Division
reven@@
HP
hésitez
ouv@@
Xbox
serving
ED@@
tackle
ao
auberges
exportations
legitimate
intensive
encouraging
Belgian
output
din@@
annuelle
PI@@
elsewhere
permit
colours
ación
OTAN
arrived
Mas@@
simplification
sus
classic
Bour@@
essais
girls
Without
cool
doors
MENT
temp@@
conserv@@
interpretation
productivité
engineering
mel@@
sending
hectares
Given
Camp@@
ete
super
directory
ME
Team
gold
SU@@
applying
industriels
Congress
canadiennes
Master
cour
visas
stories
fications
intérieures
heating
Heritage
barriers
apporté
ren
centr@@
vari@@
trafficking
Britain
Utilisateur
Han@@
win@@
précédente
mes@@
spoken
voies
ète
attente
geant
artiste
signaler
MEPs
cle
spéciales
automatic
personnellement
voc@@
printemps
SMEs
faster
immobilier
productivity
Mobile
eraient
Jeux
brief
lé@@
écrire
ignore
carrying
revanche
oni
IBM
fiable
quelqu&apos;
innovations
autorisé
stores
déficit
incluant
sis
bilateral
lau@@
disk
Organization
je@@
Tru@@
aï@@
C.
plac@@
ô@@
ny
Multi@@
Like
feront
dési@@
overcome
ender
couverture
ky
Stra@@
vide
programmation
artistic
menus
géographique
exceptionnel
certes
paying
animation
liked
furent
tend@@
iter@@
remarquable
non@@
applicables
les@@
ry@@
reconnaît
lay
western
Bulgaria
retrouve
afficher
delighted
rale
east
quées
insul@@
parliaments
appr@@
alliance
dées
utilis@@
liberalisation
procès
slow
ambitieux
contrac@@
Read
ologique
Verts
hostels
58
cherche
tly
ani
allemande
pur
67
placé
énergies
Cour@@
favorables
-based
journ@@
periods
précision
meal
employer
у@@
Framework
décharge
revenue
lovely
secondary
lessons
ching
sens@@
connec@@
77
observe
tent@@
participating
apart
puissions
Gre@@
poissons
console
pilote
gouvernementales
fantastic
exciting
conseiller
Support
ultimately
côtés
plantes
Nu@@
Maastricht
Dor@@
ately
raw
aves
scheme
62
spéciaux
éventail
remained
regarder
rely
grateful
consolidation
и
pot
mets
Funds
PPE-DE
menaces
variables
répertoire
stored
poisson
archives
DA@@
`@@
С
entente
Étant
run@@
alo@@
ajouté
bour@@
guides
Monetary
poursuite
usual
rel
Côte
read@@
88
pressions
autoroute
virtual
Tax
leaves
enabled
Skype
CO
rev@@
sion@@
firstly
93
étudi@@
constamment
Super@@
confusion
restauration
cible
après-midi
dry
quar@@
wonder
interactive
citizen
dam@@
dependent
concent@@
tentative
imposition
mettons
specialized
Hi@@
considérables
mati@@
Lab@@
ome
Cra@@
amples
el-@@
décennies
believes
bo
posted
Digital
learned
textile
fies
essi@@
modernisation
étudier
Donc
Aujourd
dignité
Privacy
vers@@
Cyprus
absolute
reject
Card
delicious
dol@@
puisqu&apos;
cohérence
envie
add@@
acier
Ret@@
parlements
farm
sa@@
shipping
proceed
onnés
concernent
sac@@
probable
teront
Hamas
serveurs
pes
prête
ient
Mexique
kit
envoi
violent
threats
nie
C-@@
médecin
lec@@
Copenhagen
û@@
provider
destinée
assumer
л@@
soirée
scene
dépit
parent
depend
Maria
fermement
pistes
augmente
tensions
tenus
bouche
ged
toire
22@@
Page
journalistes
shot
permitted
deals
Pas@@
servent
BC
bran@@
somewhat
concitoyens
contributed
Town
chaleur
dignity
rurales
arra@@
tro
Ass@@
rable
wear
Dem@@
fixer
boissons
demanding
Her
gran@@
amateurs
handicapées
Have
servant
ased
détention
departure
art@@
considérée
supplies
falls
Storage
Vol@@
constitutional
stes
courte
fédérale
té@@
foundation
hed
décoration
Congrès
lettres
Competition
connus
prenez
raising
téléchargement
recognize
stylish
atic
Der@@
invo@@
écrite
élevée
préciser
visi@@
exceptions
déposé
Pap@@
détermination
cache
eth@@
possibly
Award
modifiée
relief
domin@@
amazing
joindre
lent
traditionnel
57
candidat
ith
menées
Server
ich
Portuguese
ó
nomination
avancée
artistique
futurs
Perhaps
fille
od
Egypt
generated
quelconque
dé
justified
embar@@
subjects
mélange
respec@@
undertaken
univers
array
managing
chute
particip@@
itable
répartition
Sim@@
SE
swe@@
cité
ferroviaire
dead
Charte
centuries
Fax
fro@@
viv@@
consacré
claires
totalité
Make
moteurs
greatly
tered
conferences
necessarily
soyez
·
viable
posé
vallée
parfaite
profonde
errors
réfléchir
saving
saisir
spoke
lic
introduit
extra@@
XI@@
ors@@
straight
proph@@
opportunités
age@@
intelligence
handle
opérateurs
welcomed
tos
préoccupation
écologique
extrême
pin@@
farming
Mel@@
Maintenant
filled
dangers
generate
baby
licences
consult
sugar
tree
limitation
g-@@
Pacific
subsidies
Lyon
credibility
négoci@@
recommande
Protocol
entrepreneurs
travelling
allocation
funded
suggested
ordinary
ji
rubrique
Contact
administratives
Leur
luxurious
possession
Wii
hundred
to-@@
forums
unanimité
Applaudissements
doté
entrance
flights
row
looked
recommandé
continental
créée
minorities
atteinte
award
expenses
lez
ori
vot@@
floors
ped
difficulty
coverage
constante
az
rivière
pursue
act@@
long@@
cutting
MP
н@@
News
sum
législative
sto@@
prati@@
distribu@@
productions
proceedings
rares
Trouver
reserved
ures
welcoming
lon@@
anniversary
liers
masse
foot@@
bite
м@@
College
suspension
ensures
army
législatives
cf
chaînes
abo@@
pé@@
brevets
disabled
discu@@
sole
ease
EA
styles
Vancouver
exemption
pêcheurs
Beaucoup
eastern
détendre
intensi@@
calcul@@
libération
adapt
elled
rising
sida
provo@@
extraordinaire
Congo
origin@@
Open@@
4,@@
siècles
diminution
Indian
dream
comprends
Sil@@
EU-@@
chés
Spe@@
relationships
song
vingt
castle
inspired
AM
suffer
reçoit
mouth
numériques
Canon
import
fal@@
adoptées
exports
pourrions
rental
63
attribu@@
е
appréci@@
richesse
promise
enhanced
marge
week-end
E-@@
Science
aband@@
générations
musées
succeed
dépendance
AP
hardware
promenade
tendances
eli@@
Having
Europol
alistes
gation
managers
spécialités
resistance
Rel@@
all-@@
victoire
planet
Amendments
plat
ride
CS
traditionnels
solely
Bulgarie
portion
han@@
ologiques
wrote
composants
reconna@@
Applause
slightly
electric
Sc@@
ts@@
stakeholders
residents
présentant
societies
targeted
adop@@
jardins
chement
amb@@
resolved
crédibilité
affirme
newly
Asian
AT
tol@@
onal
plenary
Ke@@
Roman
enabling
Ram@@
reflects
theatre
zo@@
HD
incar@@
hostel
deb@@
sérieusement
suppliers
Palestine
Video
placer
ques@@
senior
aines
mé
input
çons
Java
périodes
channel
autor@@
cht
catastrophes
fixé
wa@@
fiant
mont
appris
flat
ora
confirmer
anywhere
terminal
profondeur
pont
survey
correspondant
sil@@
arrivé
rendent
paraît
feet
collec@@
das
existant
assister
researchers
equivalent
prévoir
entraîner
Ici
permettrait
restricted
ico
fini
Opera
encouraged
lio
serv@@
zu
78
tir
anciennes
usine
interview
unity
extraordinary
TION
mostly
Vista
organis@@
bi
A-@@
environnementaux
cinéma
severe
orial
proposent
américaines
annoncer
Hostelsclub
programming
arri@@
preventing
Situated
proposing
impôts
câble
combinaison
congrès
cid@@
covering
professionnelles
prestation
iez
universités
ved
latine
ond@@
Pass@@
classification
subsidiarité
prospérité
ent-ils
agisse
favorite
signes
rembour@@
touristes
replaced
computers
çant
book@@
Pic@@
itée
82
graph@@
tra
reprendre
female
meets
ection
Tel
ambi@@
disent
IC
rêve
deficit
Force
plaît
allocated
SC@@
rép@@
commercialisation
présentées
savent
bing
bateaux
ef
quatrième
ining
mil@@
Aux
pire
ned
lu
upgrade
nine
Las
èrement
cuts
preuves
entre@@
propriétés
canal
missing
ément
respecte
institu@@
Los
competent
Copenhague
identi@@
requête
prenant
functional
vêtements
returns
Aucun
Cré@@
Quality
gener@@
partition
accorde
charm
ners
cach@@
estimons
Livre
is-@@
61
enquêtes
sters
tobacco
réputation
directions
ancy
DO@@
Off@@
manuel
rénové
atu@@
Outre
fiés
accessoires
énormes
convenience
atten@@
barre
occuper
incident
figu@@
agu@@
tourner
possèdent
sèche-cheveux
laissé
coordinated
Br@@
pensent
achats
pers
gal@@
ea
aren
ares
mondiaux
Sab@@
parlement
cheveux
adding
enjoyed
confortablement
profil
exp@@
toilet
visual
procédé
appropriées
orientale
attendons
GN@@
Radio
sight
dark
adopting
NGOs
jo
Personal
climatiques
Rio
sauvegarde
Al
battle
sustainability
tings
Blue
tible
subsidiarity
vin@@
Cent@@
satisfait
Air@@
da@@
Terre
deviennent
ú@@
étendue
mur
packaging
compléter
iPhone
rain
aménagement
éthique
quit@@
contribuent
Neu@@
puissant
Fun@@
piano
développés
eler
langage
person@@
visent
contrast
1988
rang@@
manufacturer
Islamic
habitude
rose
Wor@@
notification
native
regardless
explained
profondément
camping
fient
duquel
ral@@
Télé@@
Administration
Ev@@
puts
chaleureux
reputation
tal
OK
Pet@@
présent@@
t-il
View
spectacular
instances
reaching
promotions
attached
refers
tente
cadres
travellers
graphiques
nights
Pact
drop
bet@@
ministers
trends
Website
ake
Sen@@
ishing
demi-@@
normally
topics
Kur@@
Systems
alisée
habituellement
élu
mani@@
transformer
Stockholm
Sun
Jésus
pesticides
dre@@
formulation
itaires
manqu@@
movie
faisait
forts
Quelles
familial
Check
fourth
main@@
mariage
п@@
bes@@
zes
VAT
Deposit
fiables
realistic
défini
bright
ished
FC
sin@@
accordée
three-@@
répercussions
charg@@
prê@@
islands
push
reservations
compact
Australia
attaquer
rique
FI
alize
hum@@
sant
trains
mar
cule
postal
PM
MAR@@
acti@@
aurais
formations
Dan@@
united
Dol@@
automne
noyau
plenty
Bible
busy
psych@@
x-@@
Authority
vary
puis-je
acted
vélo
sounds
chaud
boards
atri@@
none
representing
pel@@
Gri@@
winning
ode
comprises
leçons
lé
lasting
ambitions
Symantec
intervenants
lived
clu@@
determination
visions
ski@@
sleep
réalisée
servers
Non-Smoking
Structural
hur@@
approaches
Dou@@
attempts
engaged
Ham@@
Reg@@
desired
enrich@@
sought
tun@@
engagés
cha@@
issons
ep
sof@@
900
T-@@
annexe
Spirit
annonces
indu@@
metro
Ca@@
Nikon
environs
modi@@
mille
universities
Fab@@
semi-@@
Holy
Wikitravel
Où
Thirdly
sid@@
affirmer
passenger
Sor@@
Employment
Mur@@
décès
Search
generations
Santé
iled
ix
ache
morts
Cast@@
conscients
calm
settlement
unités
eure
reuse
interaction
significative
pra@@
91
employee
prosperity
regrette
consentement
top@@
secondaire
tax@@
remis
naturels
Industry
Should
St-@@
juge
Press
Provence
isn
capture
commis
XP
PAC
veill@@
optique
Power
pourcentage
chev@@
altitude
letters
communicate
invité
eve
Château
LCD
ker@@
60@@
souci
museums
entraîne
informé
remarquer
tchèque
Tr@@
1970
Explorer
Wednesday
repos
individuels
originale
au-dessus
importations
Sport
thousand
appeared
adapté
far@@
Speci@@
inage
Ki@@
solarium
zu@@
Ta@@
superior
eo
beings
sul@@
technologiques
propor@@
esses
roi
sensibles
ared
banquets
accomplir
découvert
ajoute
visage
mas
dispute
Bienvenue
étiquetage
UL@@
Eglise
TVA
class@@
Lou@@
istic
Pres@@
satisfy
RSS
Horaires
trips
wards
étages
Rapport
sam@@
D-@@
Az@@
modern@@
Conn@@
cleaning
éch@@
MySQL
grosse
Morocco
phrase
PAR@@
blanchisserie
MP3
Cham@@
retrait
soil
76
sty@@
officers
annulation
imports
voilà
Dev@@
socialiste
cycl@@
partly
BCE
eventually
flam@@
Cy@@
RI@@
aces
Nigeria
69
alities
particulières
73
percentage
connaissent
Cri@@
restore
countryside
reux
TC
ouverts
inquiétudes
io
showed
­
terminé
residential
réside
honorable
réglementations
bun@@
string
een
croissante
récents
duction
play@@
Budget
Kenya
joining
érés
94
vague
temporaire
everyday
Troisièmement
eted
decade
turning
composed
regarded
ized
savoir-faire
fiscales
squ@@
prévus
dents
stand@@
bike
ito
chang@@
patent
hospitality
quotidienne
récent
Nov@@
occurred
fairly
susceptible
fé@@
10-@@
étroitement
tait
département
Far@@
influ@@
dumping
VO@@
sheet
movements
89
tt@@
eta
The@@
estim@@
sit
atis@@
keys
entering
nevertheless
essai
acknowledge
suggestion
charger
arbres
Maroc
suffered
trained
Tom@@
alisés
destroyed
79
appro@@
arise
Edition
sent@@
gap
présidents
begins
exigence
ent-@@
territories
serre
âgées
corresponding
modé@@
worthy
miss
exposure
agissait
renowned
firmly
palais
domicile
weak
wider
couvre
compens@@
inhabitants
sif
sexuelle
faces
supposed
pris@@
drinks
С@@
élimination
erg@@
199@@
employers
Would
atoire
parvenus
meals
mét@@
couvrir
Holiday
employeurs
non-smoking
Among
complicated
Olympic
URL
voy@@
aking
87
Na@@
ayons
compos@@
trend
camp@@
FMI
cass@@
everywhere
Youth
trailer
hes
ened
FS@@
démarrage
isons
.net
magasin
Standard
électriques
externes
que@@
sentir
collectivités
accélérer
executive
Daniel
fi
PH@@
spéci@@
Américains
sucre
sn@@
eth
Tim
App@@
industriel
with@@
hautement
actualité
exiger
campagnes
Finance
83
e.g.
tested
inés
eus
dition
journalists
salaires
boot
Chez
prisoners
Pin@@
résolutions
gag@@
tiennent
legally
England
doctor
significance
incl@@
acquired
constate
soutenons
approuver
labelling
oned
towns
twice
transferred
bourg
municipal
comparison
Cannes
designs
Indi@@
custom@@
ault
admission
vies
Hom@@
seeks
mix@@
comparable
decline
rating
endant
pilotes
mobiles
modify
dg@@
tribunaux
jurisdiction
affirmé
jet@@
ey@@
ink
incidents
religieux
formuler
achievement
à@@
surfaces
réalis@@
anie
commissaires
lim@@
François
Lau@@
Munich
24-Hour
safeguard
refuser
prisonniers
Os@@
ental
associé
reçoivent
driven
modifié
Beau@@
Islam
eled
Quels
QUE
protocol
multitude
consultez
HO@@
cabinet
kes
internationally
énergétiques
80@@
gique
dotées
atelier
actors
aériennes
quez
Directeur
précieux
Trav@@
referendum
ne-@@
FR@@
freedoms
Federation
mun@@
Ann@@
vivement
compétition
Es@@
radical
revue
Suites
approuve
hel@@
élevées
consom@@
enseignants
adresses
Ther@@
oi
84
mers
lation
tropical
preserve
Ed@@
murs
foods
addressing
Labour
Tel@@
regulated
dur@@
précédemment
maximale
dessous
uniques
sle@@
roots
certified
proven
produisent
All@@
EF@@
contribu@@
désir
ALE
amen@@
ae
tranquille
borne
intégrité
LT
Syn@@
holder
worst
Croatia
travaill@@
aya
professeur
sortes
Tim@@
constitué
telecommunications
ologies
GB
widespread
tively
IMMOBILIER
enjoys
mid-@@
vice
mentionner
importation
sses
immédiate
quitter
coalition
overlooking
Sav@@

Next
italienne
ack
mistake
contemporain
assemblée
tourists
appoint
considers
inquiétude
VIP
incombe
resulted
devrons
prospects
grade
decisive
réagir
appointment
dog
Fon@@
ize
innov@@
ingredients
Valley
arrangement
chemins
integrity
contiennent
surely
seconds
treatments
assurances
continuous
XML
complaints
certificat
affichage
PSE
logical
flows
wel@@
revision
Tokyo
losses
accounting
Fédération
ressort
fleet
génér@@
SH@@
cultiv@@
introducing
Dal@@
enter@@
amended
atiques
Pr@@
tically
pens@@
Chypre
Pack
vic@@
alists
bilan
Gold
prof@@
ratio
deeply
honour
légumes
Chief
lever
optimal
Polish
sum@@
jouent
negotiating
refer@@
élève
Net
Som@@
issez
endorse
visu@@
SV
médi@@
adds
remarks
cell
éro@@
autorisés
débit
proposant
passée
pack
orient@@
architectural
témoins
ox@@
mén@@
stuff
RES
CAP
collaborateurs
sees
scheduled
Part
immeuble
Ombudsman
aming
Road
printing
navette
secondes
equ@@
long-@@
complémentaires
alcool
Thomas
graphics
tement
bility
initiale
cooperate
enci@@
listening
margin@@
eller
similaire
ming
aside
voient
fabricants
agne
tain
schedule
RE
eable
meubles
sentence
placés
Consumer
aises
Full
intergouvernementale
suffisant
Baltic
Initiative
monthly
secrétaire
disabilities
point@@
pro-@@
Terms
prendra
prize
warning
G-@@
graphic
danse
tisme
acquérir
correction
participe
Location
inst@@
Est@@
Consequently
Français
Poker
dera
philosophie
coins
électeurs
manual
visits
aimé
populaires
retain
instaurer
exprime
Water
S.
examination
heureuse
Kirk
forment
81
arabe
stream
teacher
PPE
igh@@
fournies
retail
Americans
sted
fiées
acceptance
harmful
Entre
Petit
approve
dad
plastic
aventure
vessels
éd@@
abolition
ew@@
purchased
disasters
états
sh
poker
pping
reflected
Investment
référendum
appelée
Shop
affects
spécialisés
développe
5,@@
sûre
Cab@@
Venice
gli@@
olive
bre
tienne
traditionnelles
pick
humanity
tionner
prestigious
forth
Bio@@
talents
hypo@@
archive
pair
kernel
wife
calcul
Vit@@
clock
denti@@
évoqué
administrations
к@@
mont@@
Vice-President
spi@@
piste
Direc@@
citer
undoubtedly
1986
compose
applicant
dites
dig@@
strictly
350
Monde
gés
pole
déclare
struggle
fle@@
ami@@
š@@
subsequent
Vienna
asset
venez
hard@@
repair
Ford
justi@@
Peut-être
exploiter
fulfil
construc@@
Croatie
cliquer
Mit@@
Jan@@
C.@@
appearance
Grande-Bretagne
ind
oning
finir
rés@@
élaboré
aurions
TF@@
participent
keywords
therapy
forthcoming
spacieuses
sinon
12.@@
ax
audi@@
engagé
philosophy
illa
ample
nécessairement
invitons
eliminate
déposer
tionnel
Alberta
Set
jouit
nau@@
nées
relates
Kh@@
makers
fortes
japonais
Not@@
Auditors
emment
enjeux
74
irlandais
Travel
Taiwan
mini@@
devrez
11.@@
constat@@
analyser
incorporated
Gam@@
feuilles
Aucune
autonomie
longueur
couples
rup@@
Sec@@
mari@@
execution
sym@@
varied
aste
maîtrise
knew
accordé
Aqu@@
commentaire
bref
accumul@@
certificate
industri@@
vice-président
dem
detention
constitutes
développements
everybody
médicaux
IG@@
véritables
Library
dominant
Inst@@
tron@@
gne
démontré
counter@@
ound
guided
NI
а
demandent
Elevator
suffisante
vulnérables
remplacement
intelligent
PP
limitations
anger
surprised
AU
pati@@
clauses
quinze
trouble
iler
mercredi
Ur@@
yl@@
studios
Vill@@
paysages
bug
devriez
politically
Organ@@
micro-@@
pensée
Cli@@
bénéfice
ex-@@
enterprise
cohérente
19th
highlighted
governing
jacuzzi
Power@@
manifestation
no-@@
portfolio
Angleterre
eme
än@@
drogue
coordonnées
positives
Small
tiss@@
indicateurs
high-quality
seules
AD
ret
refl@@
articul@@
ateliers
monter
Ltd
1987
corriger
considérés
ôme
prochains
Child
Renault
élus
minister
songs
cer
Informations
Mad@@
répondu
Tar@@
souvenir
arrested
Sous
Soviet
Mark
ple
strengthened
loans
departments
it-il
bathrooms
sorry
incit@@
heading
underground
hospital
bres
réservé
Luggage
Working
freely
fr@@
baignoire
indoor
Sac@@
Ang@@
faute
décou@@
Durant
ham
symbole
circul@@
perception
tenons
conce@@
familiales
vraie
entreprendre
rang
Space
Tip
éventuellement
cadeau
diagnostic
bagagerie
MD
soldats
réaliste
civilisation
evolution
Dell
1985
wild
jazz
sub-@@
exig@@
Watch
ordered
prop@@
flo@@
ultimate
of-@@
tho@@
tations
wal@@
VE
faim
Consul@@
announce
presenting
Order
refus
reuses
designer
Log@@
partenariats
imagination
croissant
realise
Don@@
débattre
cus
efficiently
effor@@
fascin@@
condi@@
IB@@
empêche
expand
featuring
colors
chapter
grown
bert
implication
ce-@@
dizaines
Princip@@
signer
combines
jugement
rencontré
façons
attended
fournissent
quartiers
upper
typique
branches
Heating
Associ@@
enf@@
âme
parliament
représenter
whereas
Film
intends
Capital
photocopies
généraux
Socialist
librement
a-t-elle
rassembl@@
Rental
seats
adult
rechercher
Rol@@
gio
Mou@@
prob@@
Notes
stabilisation
Kon@@
ethical
fiabilité
retour@@
espagnole
ero@@
dispar@@
impacts
transform@@
ör@@
commun@@
peinture
aluminium
ols
britanniques
ath
ison
reaction
valley
Tourism
Commissioners
interro@@
grav@@
concep@@
définitive
clicking
figurent
minimal
virtu@@
élevage
partnerships
Bad
ek@@
correcte
SD@@
Word
Je@@
ali
passing
contraintes
échéant
emballage
ading
alu@@
ecological
officielles
Venez
orateurs
réalisées
eness
capabilities
Point
devoted
ium
pap@@
oblig@@
Staff
apprécier
DI
tus
trouvons
authorized
Tower
symbol
Ministère
highlights
aéroports
130
cross-@@
restriction
exposé
assuré
plain
Finland
Ty@@
MB
Commerce
Hot@@
souveraineté
produces
disant
shadow
continuera
liaison
restored
ech
morale
promises
convaincre
tte
score
hardly
rencontres
Stability
terie
cellules
valable
bras
déplacer
claimed
boost
incentives
Area
wan@@
Parties
alisées
observed
ux
nov@@
Limited
tionnelle
Pot@@
dle
revoir
unions
phenomenon
plaintes
visibles
integrate
Three
dégâts
scientists
AG
gh
externe
MS@@
Esprit
sanc@@
voisinage
conçus
Christmas
ams
por
expos@@
Doha
instruc@@
ight
drogues
froid
revised
appliquée
abil@@
onnaires
ounds
Civil
bataille
ignor@@
nam@@
magnifiques
actives
false
louer
infections
paisible
kilometres
Arti@@
Parce
secrets
Tour@@
afraid
operated
Georgia
ive
coû@@
fare
Series
alli@@
thé
expense
exploration
fix
Fisheries
étions
Hal@@
rent@@
détaillée
Several
divisions
stick
fermeture
Using
confirmé
cells
Dar@@
IMF
indicators
alcohol
abandon
volontaire
--@@
hr
cooking
réductions
Prot@@
normalement
ested
jam@@
onnement
réels
Rev@@
Show
keyword
broken
Tit@@
officiellement
diminuer
viendra
counter
originally
exposed
saved
Men@@
sphere
précises
revêt
lun@@
sie
catch
réparation
joie
promised
issus
stance
flag@@
scre@@
impu@@
causing
Faites
ji@@
Police
octroi
espérer
assembly
sovereignty
dommage
spécifiquement
operates
explorer
élé@@
Prince
pressing
vacation
smooth
Come
évalu@@
Discover
spiritual
Ul@@
contradiction
della
hopes
thermal
buying
eb@@
aly@@
chargée
plane
mark@@
Musi@@
specialists
printed
voulais
Mis@@
180
détenus
oeuvres
sci@@
stimul@@
volumes
ailles
Ly@@
apparition
essentially
ez-@@
durables
hun@@
révolution
fournie
levée
lance
gained
spec@@
flotte
heads
ECB
nettement
écart
fiers
б@@
Select
affordable
infraction
Vietnam
irs
accep@@
Fri@@
Review
scolaire
poursuit
superb
pilot
gol@@
ête
till@@
ownership
diplomatic
guidance
sûreté
mere
connecter
Communication
110
ald
apprécié
Muslim
neu@@
fenêtres
polis
milliard
révél@@
festivals
Nor
spécialisée
Star@@
I-@@
autochtones
adaptés
feuille
randonnée
male
aling
Bon
amed
broad@@
adaptée
atte@@
describe
eds
informal
processed
judge
avère
évaluations
Serbia
affecting
insiste
capit@@
chron@@
Hon@@
justification
recti@@
classé
ball@@
Lastly
liberal
cess@@
Secretary
civiles
maybe
employé
tape
électro@@
apparent
impos@@
ola
new@@
iro
traduit
Partnership
healthcare
rine
mad@@
compare
teen
eté
démocrates
spite
tips
rera
dal
oppos@@
Common
détermin@@
marqué
sible
geographical
Mont
Australie
édi@@
remarkable
solo
boats
publi@@
directs
intéresse
gradually
contin@@
effectuée
bulletin
mobilisation
protégés
CAN@@
concentrate
victory
terrains
judiciaires
fewer
clarify
developers
aboutir
oriented
assor@@
développeurs
mig@@
cure
Noël
établit
hidden
médecins
séjours
choisissez
Out@@
ester
belief
medicine
B.@@
progressivement
urgently
ILO
deaths
publier
privileged
greenhouse
composée
alongside
victime
cide
ater
appuie
Rien
movies
diversi@@
Compte
stunning
sufficiently
Ay@@
manufacture
souris
répondent
Victoria
Cooperation
exécuter
hommage
Copyright
indicates
tiv@@
Direction
sel
accu@@
patri@@
érer
rejet@@
belong
faux
neighbouring
motor
Father
potentiels
habil@@
gameplay
af
dispositif
romantic
Regulations
midi
précédentes
ration@@
contribuables
timely
bought
Mol@@
100@@
Up
EP
explanation
venus
tracks
bagages
essayé
break@@
favourable
march@@
liable
inférieur
arising
tells
PER@@
girl
supplied
cham@@
quote
distingu@@
basse
aille
appliquées
newsletter
SQL
NE
Honda
souvenirs
yp@@
thi@@
2015
soldiers
Customer
ède
ails
péri@@
chée
Hungary
vel@@
professions
priv@@
het
obtenus
academic
déplacement
communi@@
constaté
engines
yn@@
roof
Nav@@
alled
Laundry
sit@@
oni@@
facture
mn
Empire
transfers
ination
ust
pped
ein@@
FOR
liqu@@
bat
iron
norm@@
venues
s.com
tes@@
briefly
6,@@
stimuler
opens
sights
auté
campaigns
coun@@
étend
troubles
individuelle
í
créant
troops
Apache
terait
parameters
pilier
2nd
ão
panoramic
AR
aperçu
tile
Castle
inscrits
retirement
21@@
quantity
fleurs
cliquant
organe
eld
Provi@@
shift
Aboriginal
Budapest
Constitutional
bienvenus
avant-@@
reliability
phones
restructuring
permanence
Parti
producer
Richard
adaptées
spe@@
Austrian
Oc@@
refus@@
biologique
aquaculture
Photocopying
TER
absolue
Prenez
ga@@
4-star
préparé
supervis@@
clairs
accro@@
Quelques
bits
authentic
gaz@@
coherent
ECU
Voir
soumise
individuelles
smoking
evaluate
Gallery
mutuelle
pillar
orale
completion
commit
sophisticated
Personne
violences
SS
concrète
VA
Village
ern@@
switch
vous-même
légale
fan@@
motiv@@
caisse
dispens@@
specialist
Bat@@
donnera
publish
User
Sé@@
Blo@@
fishermen
workshop
human@@
mini-@@
HD@@
enregistrés
compete
Game
isolation
ago@@
eling
inclusive
problématique
simul@@
UC@@
gg@@
RC
coups
chrétiens
connaissons
fermer
PN@@
oring
Guerre
employed
recommandons
Sommet
tering
modem
Super
Joseph
Hungarian
déci@@
winner
losing
tex@@
ate@@
sy
inqui@@
well-being
layer
simpli@@
temple
sélectionner
Vis@@
composer
unforgettable
recording
genres
Maj@@
facilité
déclarer
sauver
déclar@@
kin@@
MO
nuits
appliqué
chanson
numéros
trouvez
Phil@@
maître
titulaire
conventional
abs@@
obliged
bloc
devi@@
checks
troupes
belge
ells
montants
rejo@@
amp
avocats
surmonter
Den@@
rémunération
Tuesday
investigations
haven
medicines
hesitate
fréquemment
concurrents
‑
Tou@@
constitutionnel
Warcraft
lac@@
500@@
mobil@@
Sel@@
mid@@
véri@@
références
ET@@
Soleil
Atlantique
jet
ouvertes
amateur
établis
believed
aging
adh@@
opportun
optimis@@
aidera
acceptation
qualifiés
sollic@@
fly
renewed
respectent
ajou@@
heim
Jam@@
bonheur
A3@@
euro@@
lights
accommodate
Land@@
advise
approfondie
ст@@
viewed
cafés
harm
substanti@@
crimin@@
décide
considerably
tens
day@@
witness
airports
Lev@@
phases
prim@@
elli
commander
Toulouse
papers
croy@@
bad@@
éditeur
releases
arrest
mur@@
Hun@@
Training
checked
espèce
adopte
pacifique
relance
carburant
Ceux
PG
Se
Tran@@
bol@@
workshops
illégale
underlying
ential
habit@@
ressource
nit@@
Sierra
solides
t-elle
excluded
appropriations
forti@@
onnée
Stu@@
dose
unfair
staying
Fac@@
arm
Concernant
OLAF
Tibet
р@@
durabilité
č@@
ano@@
ven
zo
établie
TER@@
boasts
formul@@
CC
secondaires
légèrement
effectuées
Lis@@
ial
ket
mp
signing
Finlande
histori@@
Puis
Source
factory
Vos
Joint
Rural
suggests
empty
physi@@
strictes
authentique
roll
wave
ans@@
lem@@
mem@@
officially
celebrate
mixed
Trois
import@@
anticip@@
removal
bers
Peace
compulsory
beer
seuil
consequence
iPod
1.5
Utilisez
oli
respects
tina
repris
by-@@
multilateral
glis@@
disques
schemes
autom@@
montage
détec@@
onc@@
yed
succeeded
jus
examined
touches
retourner
supporter
document@@
convenu
aérienne
soul
closing
negotiation
utmost
créativité
minor
Saddam
studied
graphie
sand
Declaration
oir
Hongrie
blu@@
bit@@
IE
suppos@@
renforcée
engagée
broader
famili@@
theory
présidente
traitées
répéter
notably
visit@@
Mes
conçue
suivent
wellness
operator
comparaison
formé
shuttle
contenir
dét@@
X-@@
contamination
SC
20th
ligh@@
honest
coastal
Liber@@
travaillant
bal
pig@@
plate-forme
épargne
fixés
¿
tac@@
ister
pace
atti@@
personnalisé
aka
occurrence
sta
undertake
Denmark
Tal@@
Boston
denrées
virtually
valide
attach@@
physiques
Over@@
blocks
kar@@
Key@@
itude
wer
univers@@
spiritu@@
réussir
gia
custom
posts
arian
earn
140
fore@@
batt@@
rit@@
Ori@@
gate
peti@@
nutrition
Further
ideally
suivie
ble@@
foyer
enceinte
motif
ania
inner
majeurs
TES
AI@@
atrices
red@@
well-known
environnemental
individually
grand@@
pav@@
begun
reconnue
chargement
cryp@@
oiseaux
posed
effectu@@
án
bé
roy@@
baie
envergure
Land
invent@@
examin@@
localisation
âgés
élo@@
mandatory
hauts
tivité
lows
fallait
fragile
orateur
contrairement
mér@@
attitudes
Photo
kil@@
bill
fix@@
orange
privilégié
ange
africains
négocier
DES
ador
ther
définit
fron@@
quantités
soumises
effectue
ception
pouvaient
aéro@@
résumé
Client
revealed
oration
HU
verte
frères
neighbours
dique
Ba@@
duration
tory
limit@@
requ@@
qualités
May@@
classiques
bancaires
ffi@@
UPS
Philippe
agréables
fermé
évoquer
spectacles
EM@@
parallel
adventure
sais@@
agers
referring
requiert
references
échapp@@
Officer
Times
biodiversity
rin@@
concrets
hyper
gallery
dramatic
bearing
Ra@@
jointly
Accord
dot@@
z-vous
écl@@
ray@@
Bag@@
exclu@@
refused
cinquième
strike
medieval
Venise
plastique
illon
Main
inadequate
Catholic
frapp@@
discount
index@@
nav@@
strictement
cycles
preferred
Nintendo
aspirations
typically
downtown
mez
focuses
plateau
maxim@@
sols
textiles
éni@@
Bell@@
incluent
elec@@
surveiller
willingness
étudiant
embargo
séminaires
Forces
deadline
reel
recourir
Bay@@
Intel
équivalent
authors
cave
motivation
Prize
figurant
noon
lée
CP
uniform
indiquant
Cin@@
Géorgie
appartenant
pren@@
devaient
matiques
mondiales
compatibles
Mich@@
Certes
üh@@
intitulé
apparaître
stake
stayed
contributing
fir@@
Main@@
Date
transport@@
coûte
plongée
éti@@
clari@@
considerations
devise
neighbourhood
pixels
instar
Ven@@
condu@@
ums
bleu
offertes
CB@@
Bordeaux
1978
motorway
consulting
queue
codécision
gées
fell
ferons
jum@@
parl@@
èmes
Under@@
ressortissants
émis
eating
alising
obtention
actor
foundations
Country
Det@@
tube
guère
établies
Doc@@
ida
qualit@@
till
Sau@@
billet
otes
vécu
cap
conqu@@
rê@@
disability
Européenne
gée
tangible
abor@@
afford
Defence
Sin@@
install@@
Van@@
it-elle
mi-@@
str@@
Spring
onnées
Ou
équipés
st-@@
Chairman
receives
légitimité
saine
utili@@
IL
Besides
inten@@
explains
DP
satisfactory
wer@@
reur
aque
équilibré
ètes
chass@@
tionally
Profitez
voyez
kids
arium
précédents
intéressés
agrees
traduire
jeter
ov
scolaires
équi@@
déposés
hill
oubliez
functionality
bénéficiaires
equity
travaillons
resse
biodiversité
EM
classical
pratiquer
performing
over-@@
justifier
iront
verser
bâ@@
sensibilisation
evident
personnages
Ol@@
Download
dépasse
hyperlien
médecine
irait
tain@@
chien
progression
Ve@@
enchan@@
Nero
salaire
civilian
utilisons
Marc
Vic@@
Vil@@
réglementaire
Danemark
Call
wise
jun@@
Développement
prohibited
D.
insist
paraly@@
Academy
considérons
atoires
communion
missed
Tan@@
Region
Professional
tle
7,@@
turns
Queen
Nature
définis
mardi
Rot@@
Regis@@
INE
motor@@
célèbres
variations
atin@@
responses
thorough
perfec@@
gies
vignette
purement
bé@@
substitu@@
occidentaux
salons
rési@@
Ari@@
ears
informés
scar@@
Vienne
guer
riv@@
adéquat
poorest
painting
repeated
ku@@
Galileo
fran@@
sincèrement
recev@@
Gener@@
Bah@@
bli@@
ems
inter-@@
scep@@
SN@@
wat@@
newspaper
laboratoire
ei
Sciences
tine
résidents
brièvement
Gor@@
trice
Coun@@
whenever
syndic@@
Combien
it-@@
envisage
diri@@
accompagner
or-@@
l-@@
summary
vienne
lucratif
Actuellement
participated
entamer
Rouge
rejoint
threatened
oria
S-@@
arranged
expressions
é-@@
potentially
rédaction
libre-échange
urgency
apparaissent
mettra
élargir
sake
surplus
desktop
stock@@
FO@@
confirme
médical
déclen@@
Dam@@
enseign@@
cadeaux
organize
ARC
miques
FE@@
élimin@@
arrêté
accountability
fondation
candidature
vegetables
emprun@@
tap@@
oph@@
ingrédients
Marina
optimale
delete
Disabled
3rd
ills
Intergovernmental
Internal
Cop@@
Firefox
légitime
tenté
dir
ray
prouver
excuse
appropriés
relate
asser@@
contextual
brû@@
suspended
couche
endent
chocolate
fire@@
Monaco
bébé
Annual
clarté
spécialisé
Syria
terons
з@@
universel
fiscaux
Did
purely
produc@@
test@@
Budgets
deserves
NT
reflection
individuel
designated
depth
demi
récupérer
scripts
couvert
stopped
Islands
africaine
assurant
horizon
thri@@
avez-vous
fiche
ruling
Dry
Piazza
générer
prévisions
consultants
auto-@@
cheese
Excellent
nur@@
Choose
anci@@
Big
continu
admissibles
eine
éloign@@
Bell
récession
IX
accessories
pénale
ati
initially
Mid@@
icon
GPS
pharmac@@
démontre
suppl@@
Roms
replacement
throw
Fam@@
cep@@
29@@
iling
glace
estimates
Visit
estimate
auto
Francisco
erais
distinct
imaginer
linguistique
occurs
rè@@
po
citizenship
sés
Danish
Wo@@
reviewed
Environmental
focusing
maps
périphériques
attendant
douze
exigent
volet
Sarkozy
Resources
conjointement
lighting
loan
inutile
ho
bom@@
prie
nécess@@
corporations
deemed
Consultez
revenues
négatif
Age
VI
supplément
impliqués
supplier
zi
glob@@
electrical
amener
portail
Treaties
salariés
shortly
registre
xi@@
Insurance
scan
rante
delays
définies
crops
short-term
feedback
oes
Cirque
narrow
foremost
ack@@
toit
History
fourniture
electoral
ür@@
panoramique
SP
portefeuille
règne
Post@@
métier
bac@@
porn
transmis
pes@@
expliqué
â
horse
TM
prière
ANT
diff@@
reconnus
Terrain
végét@@
prenons
calendar
comfortably
EST
cites
Serbie
nouveautés
loading
ly-@@
Beijing
posent
achievements
Forest
Sw@@
cau@@
souhait
mique
dangereuses
exemp@@
gor@@
Bill
tissus
BA
Line
tableaux
continents
fixes
enfance
desirable
extending
riding
ree
Pom@@
ë@@
situ@@
bet
Jusqu&apos;
DU
persu@@
antique
Bed
anes
posée
enjoying
Sup@@
émer@@
nique
lar
lant
GmbH
tionné
hôpital
lecteurs
réglement@@
grants
finds
eux-@@
Palestiniens
pierres
å@@
1984
Marketing
fifth
height
mam@@
accroissement
sexy
ouse
seemed
Canal
comités
comb@@
intes
unnecessary
Lorsqu&apos;
indispensables
consacrer
designers
desc@@
ann
trace
admi@@
José
caf@@
Rap@@
Juan
tromp@@
vo
chairs
She@@
gagné
sta@@
attentive
wooden
Columbia
accuracy
impl@@
flash
fr
Tam@@
trente
ento
eless
équilibrée
démarrer
roles
conju@@
écriture
recall
entrepris
informatiques
ik@@
promesses
themes
Helsinki
plain@@
tower
tue
régulation
„
complémentaire
citoyenneté
institutionnel
sco@@
taxpayers
nic@@
drinking
occidentale
Golden
Change
mail@@
cera
instruction
activ@@
commerces
accessibilité
explication
classement
Tab@@
beef
Ms
subi
acheté
plafond
ph
wage
Père
change@@
legitimacy
Sign@@
keeps
alter@@
H-0@@
ich@@
s.
pensé
autonome
assured
propos@@
accomplis
abordé
activer
environments
nant
favourite
qualification
pattern
outs
fêtes
attentivement
Credit
Sho@@
Four
institutionnelle
GO@@
sez-vous
urbain
parcs
financed
promoted
whereby
nec@@
findings
collaborer
commen@@
fe
WiFi
neige
victim
vé@@
surf
Visa
Friendly
Everything
rages
Airlines
forgotten
moves
villas
Puis-je
arme
fréquence
conscient
adoptés
fibres
basi@@
hosting
tomber
Stat@@
franch@@
posées
fabricant
LC
subscribe
procurer
picturesque
pursuant
overview
asse
West@@
patterns
ases
copieux
déterminé
stor@@
contextuelle
intéressante
parks
importantly
holders
creativity
Subject
automobiles
avenue
Mes@@
bian
filter
Solutions
premium
marqu@@
Panel
Palestinians
dual
profond
blement
group@@
expressément
mesurer
pourriez
lively
Products
aki
Avenue
atteintes
hear@@
amment
raisonnables
combler
export@@
Work
Pays
restera
inviter
Respon@@
chen@@
dependence
prosecu@@
deserve
créés
Porto
employeur
attends
conserve
cocktail
cally
beneficial
utilité
électorale
Gol@@
itent
exécutif
logements
loy@@
withdraw
arom@@
dite
zen
revolution
lendemain
gly
plainte
requises
refuge
mée
reb@@
manifeste
CHF
restructuration
cesser
loved
sample
nets
cul
answered
concevoir
chauff@@
Smith
path@@
Top
situées
Green@@
Start
p-@@
estimé
infec@@
matériels
œil
vapeur
nationals
Natural
théorie
léger
Franc@@
cite
purchasing
embry@@
fonctionnalité
normale
déterminée
Hav@@
pot@@
dist@@
wil@@
sanitaires
ush
structurelles
isez
classi@@
contest
épreuve
gras
gym
aded
reté
risquent
ric
initiated
Gare
bay
interdire
suisse
Everyone
transparente
contribuera
albums
SSL
subsequently
concessions
Syrie
cens@@
airlines
retire
Cleaning
preserved
Auth@@
openness
recher@@
stressed
CEO
Mer
cip@@
coopérer
cie
transposition
Awards
lumin@@
escape
passent
2.5
generous
otel
complexité
dépendent
Leg@@
aching
snow
connues
Str@@
apprécie
Il@@
douce
Fundamental
clarification
échanger
més
discuté
William
1979
450
races
aie
AA
sifs
nomin@@
Shar@@
Journée
autoriser
objec@@
sportives
Adri@@
Identi@@
diver@@
OSCE
fat
gers
rais@@
inspections
Cit@@
est-elle
und@@
délicieux
issante
lesson
Bil@@
iment
г@@
transferts
realize
religieuses
whatsoever
garantissant
civilians
exchanges
35@@
districts
plate
Growth
tire
cocktails
statistical
destroy
diesel
bag
sound@@
riers
Jewish
G20
pensez
cing
Blair
repeatedly
avocat
panorama
TEN@@
ref@@
au-@@
clarity
distributeurs
Cel@@
rejeté
simplifier
répression
éclai@@
prend@@
Qu
Lé@@
ceiling
hing
Communications
Heads
conventi@@
Commun@@
apparaitra
assisté
galerie
fabri@@
phon@@
multip@@
Democratic
clothing
manipulation
agement
Mand@@
Representative
rejet
hole
but@@
construite
pressed
splendid
souhaité
chemicals
Nom@@
accueillant
hop@@
B5-0@@
BI@@
qualifiée
dorf
Ker@@
Danube
at-@@
reposer
montée
OU
mobilier
vaccination
jamendo
minorité
falling
Journal
lég@@
rus@@
enthousiasme
IV@@
excellents
expédition
versement
sac
universelle
sûrs
Class
respecting
presidential
specify
tries
occasi@@
répète
hence
Bridge
1982
buses
conversation
ratified
soyons
matique
imported
Mass@@
affec@@
oldest
sièges
démar@@
réalise
TS@@
tentatives
Right
absor@@
chasse
assessments
abilities
façade
Past@@
rédigé
competitors
prudence
Southern
Kin@@
govern@@
Ordre
quota
Ha@@
autorisée
ograph@@
caught
proximity
saluer
disputes
consacrée
follow-up
ł@@
radio@@
Alpes
ays
marriage
Nouveau
plateforme
expériment@@
signi@@
critère
solid@@
roman@@
rit
conseillers
Naples
traces
couverts
Hau@@
nt
Quoi
injec@@
es.@@
assigned
conc@@
heated
describes
globe
procurement
Sri
structured
P-@@
Ak@@
m-@@
ights
400@@
encouragement
soul@@
observateurs
médiateur
atures
zero
personnage
Déclaration
auc@@
aller@@
Ashton
Manitoba
écologiques
für
Banquet
industrielles
téléphonique
Sécurité
pertinent
accompagné
boxes
Casa
Ocean
inverse
MON@@
visibilité
demonstrates
soutenue
lais@@
neg@@
TRE
déguster
Sudan
voyager
perç@@
médicale
héritage
Roc@@
complaint
audit@@
declare
démontrer
ler@@
Gran
cio
indirect
worry
qualifié
méditerranéenne
chocolat
cious
conclu@@
frequent
resi@@
sous@@
éventuelle
high@@
immédiat
chairman
denied
sho@@
Yukon
Réservez
speeches
constructed
respectant
rav@@
watching
lacunes
èle
conformes
liees
han
Corporate
méritent
yers
invites
granting
doux
tual
messagerie
annuels
Égypte
préférable
transférer
ket@@
entrées
Clar@@
augment@@
batteries
judgment
Face
ONS
District
flag
ando
payé
plai@@
expanded
A5-0@@
Medi@@
tournée
Viv@@
taught
specially
cat
esta
dispositifs
Technologies
hosted
honor@@
gouvern@@
faciles
réfléch@@
0.00
votreliste
voyons
oire
écrites
argue
kin
Pon@@
crew
twin
esting
notified
réservés
segment
Itali@@
charmant
J.
ris
sée
Add
titles
acheteur
Vir@@
affronter
genuinely
dirigé
aul@@
COM@@
ids
occupé
ч@@
Nicolas
réservations
programme-cadre
Autorité
oper@@
coupe
comment@@
Newspapers
franchise
ario
fel@@
SK
condamné
demandeurs
lions
renforcé
uncertainty
up-to-date
damages
Choice
plani@@
verts
weigh@@
solved
economically
lap@@
Relations
translated
self
officer
confidential
préfér@@
Tax@@
smo@@
SY@@
Mul@@
harmonie
imposent
admit
publiés
law@@
credible
allait
confident
ceau
sizes
recession
rejeter
révèle
mouse
apportées
onnage
chera
nour@@
anges
guaranteeing
fat@@
thir@@
Chem@@
fam@@
tragic
intégrés
grace
pare@@
Première
Rep@@
refined
lag@@
hau@@
dges
admettre
inoubliable
Lebanon
Set@@
MI
environmentally
lling
Which
logos
flowers
soigneusement
cherchent
Pur@@
achem@@
air-conditioned
Ben
chiens
condemn
clinical
digne
addi@@
nat@@
Cris@@
manif@@
accused
behavior
épuis@@
propri@@
moreover
sculp@@
contenues
fiscalité
CP@@
salu@@
experiencing
inée
évènements
validation
protégé
tunnel
pré-@@
ink@@
dul@@
monument
craft
3-star
détriment
wherever
robots
Fal@@
commencent
ajustement
cos
illness
ationn@@
recrutement
Zurich
len
stique
voulait
socialistes
sement
Riviera
idéalement
tants
armées
décor@@
Pay@@
indre
alier
Café
stati@@
offerte
18th
cien
disciplines
impliquer
BE@@
Che@@
consci@@
ayez
élégance
dant
quête
Sports
negotiated
&apos;est
producteur
entraînement
procé@@
Venezuela
ministry
tionnels
luxueux
Non-@@
ben
earned
ria
negotiate
Temple
dating
Directors
insertion
collectivité
extraction
debating
Four@@
fonctionnent
guy
did@@
Table
atteints
corpo@@
rendus
tragedy
bone
anglaise
Tunisia
palestinien
unilat@@
horizontal
administrateur
breaks
External
Millennium
dise
free@@
mê@@
ombre
Tor
snow@@
patio
Moscow
rétro@@
rein@@
oth@@
gel
doctrine
doubts
ows
necessity
bin
continuation
produ@@
frequency
noire
routière
signalé
incapable
bonds
conformer
SMS
sab@@
Christians
LL@@
and-@@
profite
primaire
counts
Die
indiquent
fameux
exclusif
igne
correspondent
choosing
Vatican
publishing
insufficient
ouvrage
Co
Double
convert
arrange
autobus
amélioré
household
unes
religions
zéro
lor@@
unknown
teau
boy
examiné
dated
favorise
Pacifique
married
survie
Salon
coordinate
préféré
tranquillité
rot@@
Soci@@
juger
ï
concerné
sportifs
Up@@
unification
hunger
lion
coucher
prononcer
Micro@@
Colom@@
Nova
я
Eiffel
med@@
ranging
spots
eur@@
biological
alive
écus
criminels
révélé
tester
publicly
val
valent
Otherwise
partagent
timetable
resident
magazines
Nobel
grandement
stein
ois@@
toucher
égal
thumbnail
complètes
régulière
tiles
promis
comportements
Universal
ili@@
itées
branch
Similarly
aud@@
mant
obs@@
Third
advised
Single
Care
zy@@
préférences
détaillées
dotée
Apartments
hin@@
nobody
considérations
decent
Kit@@
ravi
lis
manufactured
receipt
associer
incredible
musulmans
ava
substantially
consistently
tam@@
roll@@
TP
corporation
formulées
exposés
sia
renforce
tribute
légère
tone
uri@@
massif
you@@
1960
List
telling
entités
wa
neau
mid
MD@@
mining
Caribbean
sacrifice
dei
répon@@
turc
résulte
massages
abonnement
reproductive
GUE
hasard
dar@@
certainty
nar@@
sécur@@
aler
résultant
Liv@@
évoluer
satis@@
intéressants
asion
ayer
collapse
profitable
airline
chief
awards
visitor
suited
dd@@
mentation
coordonner
impéri@@
ces@@
individu
attend@@
mie
rétablir
churches
systématiquement
Ça
Technical
tien
Province
régl@@
mul@@
Plan@@
internation@@
infractions
bab@@
communiqué
fibre
entity
Ky@@
sensibilité
appreciated
verse
cancelled
circuits
mineurs
gathered
bling
aring
passeport
guys
indépendamment
milit@@
lot@@
souffrent
sonore
pop
alike
soutiennent
libéraux
transitional
pet@@
influences
eut
incroyable
approches
mentale
universitaire
serai
avancé
charte
lawyers
vive
tened
actionnaires
prevented
limitées
racisme
hôte
Max
black@@
prin@@
Pool
Prin@@
passées
300@@
éventuels
ampli@@
me-@@
trademarks
ed-@@
Reader
twenty
ced
Ent@@
dering
expédi@@
complimentary
show@@
immun@@
recevrez
rappelé
Ministre
signification
prenne
optimiser
pousser
éner@@
biologiques
evil
Marco
érées
refusé
aim@@
enti
tough
russes
courante
méd@@
Playa
codecision
bag@@
vélos
R.
ГЁ@@
aps
ounded
intégrante
ciens
anne
illage
prospect
Young
occupied
obligatoires
exceed
About
préjudice
fleuve
birds
patience
ultra@@
Greens
emerged
entraîné
Marseille
treaties
pertinentes
requise
soviétique
mél@@
terri@@
degrees
steam
patch
Update
less@@
Water@@
dépend@@
aked
religieuse
SD
demandant
pez
pricing
than@@
bigger
ft@@
magic
exerce
uma
spectaculaire
passport
governed
racing
ра@@
GO
Type
clavier
justify
rass@@
cell@@
Innovation
communiste
supporters
jk
cieux
lowest
ght
vir@@
est-@@
mistakes
emerge
inquiry
imagin@@
ministères
prévoy@@
chaude
discovery
morceaux
illé
arbre
cular
Cap
alia
gos
administrateurs
trimestre
guard
doc@@
requiring
incapacité
iting
inaugu@@
bibliothèques
désire
Chap@@
intéressantes
integral
relaxed
haus@@
occup@@
restau@@
promotes
Hussein
routier
year-old
remédier
TI
PRE@@
Apart
Renaissance
Clo@@
Anti-@@
passes
placing
superficie
ader
fails
Pil@@
formula
inte
breaking
Gay
cherchez
tas
grain
Presidents
vals
Boutique
cancellation
nière
thro@@
agré@@
struc@@
tradu@@
anche
Zi@@
assistant
légal
sage
literature
réalisations
var@@
ènes
fondement
iness
jury
precious
defining
Lac
bis
chaleureuse
concer@@
Bern@@
photograph@@
fitted
Occident
jour@@
sélectionnez
inger
diffus@@
R.@@
ignorer
Patten
tag
resses
raff@@
ve-@@
Mot@@
intègre
Om@@
folder
preliminary
ura
recep@@
asing
stays
seminars
eding
inégalités
oasis
direc@@
chargés
Celle-ci
acquire
fondateur
personnalité
gic
encourag@@
executed
certi@@
motions
favor@@
feels
secours
verify
sian
GE@@
ester@@
mentionnés
B.
ALDE
isc@@
mono@@
Tunisie
passés
cides
diagno@@
gel@@
partisans
saurait
teach
tab
regar@@
outlined
Jou@@
consultant
estimations
SI
Argentine
Bir@@
strange
signal@@
zy
Bol@@
guise
prot@@
weekly
frère
rum
tort
arbitrary
métal
GU@@
kit@@
stops
déroule
coff@@
abrite
eurozone
kno@@
Avez-vous
bière
ela
cians
eline
Works
endra
organisées
sauce
laissant
undertaking
Criminal
dan
partiellement
ska
réchauffement
lovers
assurent
Dur@@
Opéra
réclam@@
dépasser
vill@@
sour@@
Solana
olog@@
définie
gradu@@
vastes
brevet
farms
pit@@
9,@@
ordres
stro@@
hairdryer
ests
Liban
Local
alit@@
chat@@
mec
popu@@
announcement
manipul@@
rid
ful@@
nou@@
ENT
contributes
surg@@
sives
penalties
writer
vely
vera
й
File
upcoming
dged
quali@@
sheets
aimer@@
Could
logic
suiv@@
brut
marking
échou@@
genetic
André
rivers
énormément
basically
alls
CAR@@
attract
ordinaire
Parliamentary
admirer
Pa@@
thy
α@@
aud
préférence
syndicats
parallèle
législations
ema
GI@@
connexions
ees
dium
ling@@
suprême
ense
Blanc
quin@@
finest
the-@@
paintings
ond
directors
tivity
power@@
pack@@
workplace
multimedia
sentiments
noticed
oublié
warranty
signatures
dédié
mac@@
guerres
bread
RS
advis@@
abandonner
bec@@
personn@@
adjustment
accompagne
RI
Sol
Together
cos@@
mailing
ital
croyons
soud@@
τ@@
Lar@@
gouvernementaux
Me
aident
ects
surpris
tigh@@
incentive
tari@@
Basi@@
résolu
oubli@@
culaire
instantly
68@@
Dun@@
protest
forestry
G8
transmitted
nement
décennie
cents
voile
Fa@@
Cross
Building
océan
couverte
traits
ados
Learn
imposées
displays
volunteers
Que@@
Experience
knowing
Wat@@
soulevé
opposé
Left
bandes
octroy@@
provoquer
harmony
diversification
caractéristique
essions
py@@
Choisissez
fate
Bet@@
préservation
bassin
Points
enco@@
know-how
ession
clothes
supérieurs
downloaded
spar@@
raises
imprimer
adhérer
stat@@
rom
laser
repassage
sized
uniforme
summar@@
considèrent
trés
devienne
trop@@
catering
Eff@@
cha
intervene
hou@@
libér@@
fuels
Parking
ography
astronom@@
promesse
Kir@@
Secretariat
e.g
REN@@
elderly
brother
pénal
slowly
FAQ
gestionnaire
agn@@
suggère
guid@@
bless@@
bir@@
livrer
challenging
survival
prépare
fais@@
lakes
Al-@@
gather
doub@@
tica
apped
Let@@
rat
fidèles
entouré
hosts
courants
touchés
worrying
Sand@@
demonstration
get@@
rarement
appelés
Post
cancel
debated
Parallèlement
Hill
photographs
bugs
légales
entité
paths
1981
ization
respectivement
ailed
solar
ssi@@
séances
skilled
ilité
Hou@@
enh@@
grippe
hills
regulate
MI@@
cibl@@
fassent
envoie
annul@@
warming
pools
Règlement
constru@@
maritimes
avancés
Cur@@
tains
arrivent
horaires
aut
gy@@
recyclage
21st
ands
ferait
Terrace
dits
simultaneously
dic
consistency
Basque
adolescents
unanimously
split
dil@@
distances
annually
ides
éprouv@@
LU@@
preparations
adverse
entities
Cologne
gère
politi@@
érée
doutes
inspire
Marg@@
Ali@@
musicale
subir
isations
comptent
gratuits
brands
electro@@
ATR
4th
battery
suff@@
vi
obtaining
centers
convi@@
spam
belongs
artifici@@
ints
.00
alling
rir
cabine
murder
Iranian
négatifs
Porte
jets
ino@@
expiration
Vie@@
frag@@
Meg@@
wheel
demeurent
humanitaires
chaleureusement
powered
shad@@
tissu
nen
rateur
édifice
É
plong@@
Electronic
Hist@@
investigate
aga
CH
patents
disclosure
mini-bar
quarters
Patrick
souhaitable
marins
bags
abuses
contre-@@
accusations
commenc@@
disappointed
ethnique
Zu@@
sweet
blanche
ethniques
déployés
cheval
reconnaissant
ices
superbes
Encore
handicap
insur@@
produite
apparently
plugin
rendue
zoom
vendus
remporté
entend@@
securities
killing
pharmaceutical
specifications
détach@@
ressembl@@
bid
objections
ende
chet
lanc@@
tch@@
prochainement
oms
cérémonie
API
permits
oires
musiciens
distribute
onale
répondant
oise
islamique
canaux
disco@@
attire
PU@@
Ast@@
froide
ingen
chansons
Theatre
invasion
employ@@
jolie
charbon
paradis
decoration
Argentina
Mai@@
oci@@
ande
hire
bénévoles
apparence
reinforce
eas@@
impliquant
3.0
décorées
sélec@@
Modern
discre@@
eting
sustained
cathédrale
Francis
Design@@
cen@@
Climate
existante
exu@@
cut@@
tism
righ@@
editor
télécharg@@
protège
censure
cookie
volontaires
riz
indigenous
préc@@
prioritaires
descriptions
spécialiste
turing
blind
identifying
réactions
wo@@
clarifier
autorise
Frankfurt
div@@
géo@@
bus@@
pin
Andre@@
recueillir
milieux
pa
Sem@@
ocean
divertissement
perform@@
MasterCard
consultatif
accordingly
ups
crains
withdrawal
eda
unusual
kill
smart
bien@@
associ@@
alla
bie
officiels
Official
Ce@@
investing
démarches
déplacements
ôt
fa
protec@@
tz
lica
herself
trav@@
itement
bureaucratie
Equi@@
Final
côtes
cruciale
cameras
screening
Ir@@
préoccup@@
périphérique
RAM
SW@@
médicament
Tw@@
Six
half-@@
polonais
oter
pride
foster
preferences
Tech
labels
fus@@
téléphones
attribution
California
host@@
quiconque
apportent
II@@
Spi@@
associée
Samsung
tag@@
fur
owing
instauration
din
disparition
longs
Freedom
que-@@
Soudan
subscription
montrant
autrefois
Recherche
peupl@@
demographic
Ps
explications
fic
licensed
aborde
opposer
attendu
euro-@@
TV@@
diplom@@
affirm@@
leçon
expanding
politiquement
ein
Celui-ci
itant
lian
Schulz
prestigieux
plais@@
personalized
eigh@@
dra
Cultural
spontan@@
routine
mente
Philippines
admis
Rwanda
SER@@
deser@@
quet
urban@@
fines
gon@@
touchant
Conformément
Residence
améliorée
High@@
érant
appliqu@@
Test
Fort
Campanile
explosion
devenus
converted
copi@@
restrictive
modifiés
nous-mêmes
garanti
Ironing
cian
Fro@@
tia
brochure
Assistance
premises
Aus@@
Collection
Medical
aliment@@
diffuser
celebration
accomp@@
eral
any@@
Attention
reurs
différenci@@
skiing
exhaustive
detained
fav@@
pro
eni@@
Play@@
headquarters
réunir
cataly@@
distant
usines
reverse
faithful
donateurs
Réseau
prayer
issait
arriv@@
delicate
dégra@@
découlant
vement
lés
amend
returning
doctors
logistique
récol@@
beat
inférieure
Lav@@
renouvellement
gratitude
excess
divine
Pour@@
Fischler
cali@@
automatis@@
talked
characteristic
rempli
mées
multimédia
8,@@
matches
aw
exe
canc@@
purchases
onde
considérées
Bot@@
tracking
sovereign
33@@
bénéfici@@
lers
racism
néerlandais
connaissez
key@@
TIC
milli@@
simultanément
échéance
visitez
triple
Fron@@
empire
saint
attraction
souplesse
riques
surprising
rendant
alentours
sérieuse
miers
fresh@@
installés
lied
solaire
habitation
condemned
blame
pain@@
ord
crac@@
delivering
gays
universitaires
garantissent
panneaux
adjust
Sometimes
supérieures
Vend@@
fici@@
persist@@
acqu@@
tionnaire
vec@@
tise
activation
ington
annonc@@
-to-@@
considé@@
témoigne
dettes
placements
Scotland
succ@@
oit
ín
NOT
valoir
cules
taire
bird
manifestement
Language
tribu@@
inning
Bad@@
macro@@
Bul@@
acknowledged
Head
Finnish
condam@@
chinoise
imposing
Anonymous
Louvre
éventuelles
thanking
aler@@
pho@@
separ@@
comprise
algorith@@
quons
diet
Gran@@
colonial
rez-vous
mile
hosti@@
Poly@@
formidable
undertakings
Anglais
Industrial
calculated
Indonesia
dessins
identique
observers
sédu@@
souff@@
Moscou
giques
activists
vie@@
réglementaires
differ
respecté
oblige
collectif
merveilleux
wasn
tak@@
Rab@@
respectively
scanner
stones
donors
dian
15-@@
Chair
développée
compr@@
izing
retards
compilation
portal
breach
animé
infl@@
optional
primordial
Man
Gil@@
celebrated
chants
complexity
tune
tourne
gué
nul
renseignement
sexes
Bau@@
discretion
Learning
wars
GS
créent
1,5
ml
thes@@
olo
Gab@@
ab
Ca
liqui@@
Sales
systématique
améliore
supplementary
.gc.ca
EE
exprimées
apparemment
aks
Standards
territoriale
bid@@
damaged
num@@
renewal
newspapers
bibli@@
prisons
méditerranéen
Until
accepting
détru@@
pause
Verheugen
regret@@
Document
column
buts
aiment
europ@@
teneur
threshold
fallen
mauvaises
suédois
quel@@
Lanka
proviennent
Environnement
admissible
Mun@@
proc@@
muni@@
belonging
trials
organisés
serais
exploit
esi@@
Image
og
croit
DG
spectrum
synchron@@
Lor@@
Wh@@
filed
Asi@@
chic
interven@@
barrières
RA
gravité
diplôme
dish
Jerusalem
Tant
hil@@
ingénieurs
Laval
consolider
cy
apport
refund
ción
ß@@
differenti@@
pluie
DH@@
remerciements
dru@@
tolérance
Close
partial
ajout
Chacun
incorporate
NEW
M-@@
shore
conçues
fournissant
biom@@
¨
realized
prétexte
pâ@@
ally-@@
gross
dirais
handled
ryth@@
agra@@
eva
absent
mad
5th
invested
Plat@@
salt
professeurs
matic
wake
Bab@@
Liberal
Hab@@
annuler
hiking
unemployed
Anne
Fair
Store
exhibitions
tening
adéquates
frac@@
broadcasting
Base
navig@@
handed
aster
Burma
contest@@
répond@@
Mar
deficits
soulign@@
ull
anna
porno
survive
isol@@
symptômes
Host@@
sanitaire
pet
antly
lle
économ@@
communic@@
ku
VER@@
sensation
mechanical
1967
CI
volontiers
french
ро@@
heavily
Vision
wages
pursued
détruire
asks
linguistic
sensi@@
Spock
catholique
ARE
détection
panneau
autumn
inno@@
utility
Ensemble
Supreme
Hostel
warmly
drafting
chiff@@
awa
mobili@@
convaincus
lacs
empê@@
clinique
undermine
Slovakia
1976
ignons
significatif
platforms
Val
TELUS
Obviously
compression
CRTC
senti@@
Dru@@
Moldova
exercices
encourages
mage
ordinaires
Ten@@
sur-@@
expressing
laboratory
sugg@@
dings
explicitly

dérou@@
interpré@@
n-@@
125
caution
affi@@
pper
geons
toilettes
Currency
policiers
termine
cu
League
Puerto
Vel@@
Coast
flying
étique
récup@@
libérer
Audio
speaks
corrections
thoroughly
palette
GT@@
homosexu@@
batterie
intern@@
founding
déploiement
poursuites
diam@@
zer@@
gent@@
libraries
cliniques
exploring
fabric
partant
max
POR@@
sphère
determining
versi@@
fallu
ort
forming
caisses
derived
decrease
encl@@
accueill@@
reser@@
désigné
aun@@
workforce
étiquette
transi@@
prestige
sensiblement
éclairage
combining
Ball@@
rotation
restrict
distingue
occupent
Europa
déposées
intensité
fers
carrier
équ@@
Equ@@
SL
chaos
tail@@
failing
dable
mule
silver
Peu
disciplinary
1975
backup
Iraqi
alleged
nette
Plu@@
vé
Has
ras@@
curi@@
Colombie
nas@@
nécessitent
3000
Computer
exemplaires
eres
engend@@
rants
aménagées
lich
ordonnance
systematic
demo
réfrigérateur
constraints
fears
géré
Wall
first-@@
rôles
By@@
deviendra
insonorisées
tiny
credits
expose
Cathedral
Tampere
c.@@
Chapter
embl@@
endi@@
Keep
ections
P.@@
ation-@@
isolated
Bus@@
provoqué
confidentiality
Sant
parlent
facilite
rigueur
etre
BE
diriger
Syl@@
déficits
symptoms
assessed
appreciation
bands
devises
discrimin@@
ASA
ounding
labor
elegance
cardi@@
OGM
ont@@
Gall@@
gar
régulier
Système
Version
aur@@
Between
Finances
Manhattan
puissances
Alber@@
Content
keen
sorti@@
pencher
Monti
pires
conjunction
concrètement
céréales
contemporaine
E.@@
après-@@
Ash@@
voisin
publiée
bureaucracy
plo@@
sper@@
Help
Mars
complement
Sie
mécanique
Kra@@
feder@@
directeurs
champion
exemplaire
scénario
typiques
abri
équité
layout
gren@@
Nar@@
animale
thoughts
DO
vend@@
consistant
Share
daughter
fixation
sain
formulaires
unlike
accessibility
configu@@
reporter
portrait
respectifs
élargie
Colombia
istance
arbit@@
1983
OF@@
décideurs
stru@@
renommée
noble
rance
profound
B-@@
Santer
avoided
Gir@@
shed
tolerance
tapis
immer@@
vertical
manières
photographie
partitions
mons
lacking
jouir
dys@@
tan
mensu@@
Brok
romantique
récompens@@
primes
tombe
conjoint
ave@@
vice-@@
Manuel
maintes
colonne
jeopar@@
winners
BL@@
vendu
secondly
Rus@@
succession
mast@@
Questions
Fr@@
Patri@@
privatisation
sentenced
restoration
pr
Haiti
monétaires
illustre
AV
KDE
bach
hospitalité
continuously
interim
lancée
satisfaisante
cô@@
portés
listened
sépar@@
reductions
pétitions
booked
envoyés
eous
college
ritu@@
orable
sing@@
sham@@
envo@@
distribuer
bis@@
assimil@@
opérationnelle
endommag@@
coal
worker
héber@@
slu@@
Nothing
Salle
cho
souffrance
définitivement
ignored
Facebook
sch
Auto@@
ICE
ultra-@@
mesu@@
Gulf
Studies
Route
excellentes
Vall@@
iving
Lag@@
RC@@
open-@@
secured
chrétienne
rapprocher
Bosnia
yellow
keyboard
exister
séparation
2007-2013
1.1
interviews
separately
majeures
OMS
CV
backed
jus@@
infected
réguliers
Black@@
agi
gestionnaires
allég@@
Sha@@
organ@@
conducteurs
reau
quer@@
complet@@
navire
retained
react
paramètre
stadt
ador@@
eland
symbol@@
32@@
snacks
consulted
agencées
coup@@
30-@@
recover
Resid@@
terrorists
Aires
contac@@
satisfaits
fondées
passionn@@
configure
Là
lifestyle
minis@@
public@@
ch-@@
projec@@
réd@@
clam@@
mai@@
renoncer
cinema
simulation
malades
ssa
Mountain
Mission
compétentes
sélectionné
gging
défenseurs
mari
simplify
itre
D.@@
Contrairement
basées
intégrées
Jazz
icône
aigu@@
moder@@
pertinents
blogs
réduits
hone
Hand@@
Sahara
wifi
chro@@
encing
explicitement
gged
Nord-@@
author@@
checking
graduate
aph@@
kam@@
évolutions
brun@@
saf@@
ménages
hydra@@
Gas@@
BSE
susc@@
fai@@
в
irlandaise
Bernard
skill
exactitude
Mill@@
diminu@@
arrê@@
drives
rapporteure
Thailand
réunit
Ze@@
Course
ress
singu@@
Kor@@
Territ@@
ût
adore
Classi@@
manifest@@
exploitations
1.2
chatte
activez
170
stimulate
Palacio
lign@@
conten@@
competences
aison
emission
obtient
directes
rive
measured
alle
cks
intéressé
Lun@@
Mo
nonetheless
iture
toires
porting
minimales
eman
statistique
broadcast
Nouvelle
Lithuania
vér@@
Putin
opérateur
donation
Carlos
monitored
juges
sunny
legisl@@
full-@@
ont-ils
corri@@
présentera
Parti@@
incertitude
Zone
nearest
aliers
Ros@@
bourses
sectori@@
flav@@
neutr@@
Direct
axe
opposés
datant
intimate
offensive
Kat@@
ı@@
voters
escap@@
profondes
satellites
préparés
complets
fires
Phot@@
autonomy
lette
develops
quanti@@
connecting
shell
axes
Gift
Wireless
NGL
p.m
Bru@@
couv@@
Att@@
liques
évo@@
écriv@@
authorised
faillite
administratifs
specialities
explicite
unprecedented
marin
eggs
MAN@@
partici@@
hen@@
Kam@@
judges
enemy
sées
searching
oublions
double-@@
réduisant
surveill@@
ag
husband
rémun@@
ty-@@
configurer
Baltique
sorts
atics
shaped
intégralité
Buenos
pion@@
cheminée
BER@@
Slovaquie
disposant
restaurer
IR
bra
vendeur
jugé
convince
seasonal
connais
ONE
shel@@
influenza
compétente
accompl@@
unlikely
Drive
AI
state-of-the-art
requêtes
council
ressemble
voices
douleur
oriental
appelons
bury
asting
Account
dessin
chage
Sainte-@@
Initi@@
engineers
confrontation
sand@@
assass@@
dness
encounter
prés@@
15th
fifteen
Light
separated
issements
procédés
reçus
suscité
quettes
elev@@
pursuing
quette
spatiale
persistent
ante-@@
sexu@@
E.
accessed
implies
jan
acro@@
mass@@
GM
nourr@@
.The
amus@@
removing
Product
françaises
stret@@
extérieurs
Governor
armés
Pit@@
joli
paradox@@
fascinating
pending
inciter
Objet
prouvé
hof
analo@@
settled
Comman@@
estiment
screens
associées
grec
impasse
pos
Application
refurbished
commonly
dier
Vice-@@
èse
aériens
Jacuzzi
reviend@@
parcourir
ele
jac@@
unstable
adulte
quantities
band@@
sembl@@
trademark
Ka@@
sécuritaire
culinary
tiré
considérant
injection
aus
translate
chu@@
machinery
Rock
login
Né@@
acceptés
brill@@
check-in
ony
aled
dégu@@
conditional
lière
mates
sharp
facturés
enhancing
génie
ston
declarations
ко@@
ller
décrire
auf
Articles
controversial
Wol@@
conveniently
individu@@
relèvent
atta@@
crainte
rapprochement
proportions
adequately
cigarettes
Mail
safely
accommodations
Med@@
inher@@
soulever
cuis@@
fonc@@
20-@@
journées
ceremony
Metro
cyber@@
virtuel
Hence
strive
1950
Dre@@
Alexander
iquement
Clearly
recycling
chimique
aggrav@@
Nonetheless
wire
Professor
Défense
intéressées
DES@@
témoignage
accepts
cream
founder
rédu@@
résident
giquement
comparer
17th
reduces
appartiennent
tification
HTTP
carries
radiation
Bow@@
ason
aisément
choisie
Barack
Istanbul
Dim@@
infin@@
XX@@
vibrant
chent
Miami
inventory
rist@@
stabil@@
reconciliation
rénovation
ancer
constructions
militants
touchées
Advanced
promo@@
Above
SIS
shor@@
Ot@@
joy
avérer
introdu@@
astic
fulfilled
dog@@
dation
toile
reasonably
sophisti@@
inspec@@
len@@
TB
rapidité
Sta@@
abu@@
couper
légitimes
argu@@
Wifi
ext@@
successi@@
oti@@
kings
ancies
Peter@@
boire
précip@@
Enter
Vegas
concret
MT
gence
étudié
eures
AK@@
16th
Citizens
revit@@
discutons
ailing
POS@@
sme
wishing
réelles
fermes
semblables
Angeles
edi@@
brain
complementary
mirror
avancement
Nokia
subvention
consequently
perpétu@@
nati@@
rite
convaincue
thin@@
agissent
chaussures
seekers
pouss@@
aches
salari@@
fau@@
Grands
fur@@
photography
shareholders
aker
XVI@@
sauvegarder
clic
anta
démonstration
moni@@
sélectionnés
résist@@
opérationnel
onary
agran@@
mette
bies
questionnaire
ambience
décl@@
tragédie
habitudes
Ali
GP
trouv@@
plug-in
sympathique
pipe
venture
faune
appuyant
gay
non-governmental
comforts
emphasised
preservation
entr@@
chap@@
blessures
Currently
CES
149
hearts
PO
procur@@
débou@@
inées
Sig@@
systé@@
matri@@
compatibilité
sorti
feelings
disait
multinationales
promot@@
fault
climatisées
ec
musicians
box@@
égale
ter-@@
cru
gathering
minds
tram
repos@@
5000
freight
usagers
pi
joy@@
Algeria
intérieurs
puissants
onnels
conditionn@@
potable
partageons
ün@@
Antonio
journaliste
kt
Fire@@
short@@
Km
sick
buil@@
subjected
Excel
P.
crip@@
soign@@
onnel
visiteur
rouges
royal
larges
Valencia
Prop@@
rément
expressly
downloading
envi@@
douceur
amending
bourse
compress@@
spacieux
home@@
Algérie
ct
caméra
linguistiques
regimes
optimisation
raux
wording
Ess@@
fabriqués
hémicycle
wid@@
deny
poin@@
ètre
interruption
extremis@@
accru
chons
disparu
radic@@
illet
signals
millénaire
advances
disposez
installing
reflètent
contraception
paint
inquiète
mères
esa
Cube
edited
notable
A4-0@@
asts
fortune
variés
rigorous
suicide
battre
accor@@
déposée
traitée
arrivés
subsidiary
Brown
hl
Adv@@
Autom@@
hoc
hide
delivers
vain
explor@@
venti@@
terroriste
sauv@@
illust@@
Look
sante
Expo
RS@@
Chicago
terminée
idé@@
artistiques
tonight
alliés
oux
Chris
ames
instamment
backs
assessing
Ah@@
acu@@
laissent
enseigne
45@@
géni@@
Meanwhile
kov@@
conducting
placée
varie
administratif
artisan@@
Brit@@
clean@@
condamnation
peri@@
basés
acqui@@
permette
écu@@
L.
convain@@
ussi@@
mature
voudrions
dynamiques
prestataires
apping
repr@@
stiques
cylin@@
bureaucratic
ingénierie
ever-@@
maintains
flor@@
Mercure
Libya
Chambres
composantes
Kan@@
affirmation
palestinienne
ached
guilty
alisations
0.000
mos@@
ite@@
lourds
inclu@@
splendide
ponctu@@
négative
versé
Lec@@
gènes
synthèse
charity
simplicité
dogs
payable
issu@@
Chal@@
rus
Bran@@
ii
ressing
alises
privilégiée
exag@@
étendu
délic@@
kan
isions
sad
Faire
manquer
atively
liquide
causés
Cad@@
azi@@
LAN
examens
châ@@
SITE
appor@@
ESB
représenté
connexes
cercle
énum@@
closure
gad@@
cav@@
Bec@@
completing
étrange
harbour
certitude
lées
responding
spare
wed
animations
Théâtre
e.com
tight
grew
tionnelles
carto@@
surviv@@
dreams
org
Af@@
bénéficié
prends
Bangladesh
liquid
NOTE
sentences
banned
exempt
setup
hygiène
о
semblable
AKVIS
oul
tournament
injustice
.....
hip
Large
émettre
ken@@
composant
susp@@
1-800-@@
Germain
Hospital
préten@@
invention
landscapes
rière
tail
souhaits
junior
collines
dures
refugee
Ticket
interpreted
Sus@@
libéral
arabes
CD-ROM
cle@@
stood
provient
sements
edit
Deuxième
fréquent@@
dité
hoped
Yu@@
tournoi
Lounge
lawyer
demonstrations
amoureux
prev@@
Tony
transatlantic
Milosevic
USE
valence
poses
onnaire
hes@@
Gestion
merger
major@@
jouets
guer@@
développées
boys
aidé
in-depth
entretenir
ech@@
check@@
trous
modul@@
alizing
Techn@@
Yugoslavia
assurée
déclin
classified
confirm@@
suédoise
investi@@
Pension
asy@@
top-@@
alle@@
disons
touchent
guitar
sauvages
accentu@@
blé
sauvage
sev@@
1974
gré
dispara@@
Azur
caus@@
ciation
shortcomings
gases
prioritaire
business@@
coté
decor
transformed
struck
DV@@
accompagnement
démographique
quasiment
large-scale
hôpitaux
missi@@
uranium
taient
humi@@
négatives
dévo@@
extensions
Liste
fonde
duc
gène
jack@@
prompt
drop@@
concentre
approxim@@
désirent
proclam@@
badly
Hôtels
cooked
sûrement
Nig@@
bears
stationnement
lisation
partially
defending
directrice
tery
transporteurs
empi@@
agri@@
réunis
échapper
Guad@@
dialog
ε@@
signifi@@
habitant
ci-après
détaillé
crossing
Nat@@
détient
continuité
couldn
quad@@
Mah@@
inondations
curriculum
tudes
veness
personality
recomm@@
cies
isted
cription
filtre
parvenu
convictions
prudent
Save
guil@@
iers
arriving
studying
his@@
subjec@@
validité
prépar@@
IM
IE@@
visibility
var
Mario
affecte
Rav@@
Bourse
Norton
EURO@@
disclose
Cir@@
unfortunate
objection
rap
casting
convertir
consac@@
facto
pec@@
fonctionn@@
mill@@
finition
sécurisé
S.A.
efs
viewing
causer
érique
hospitals
richesses
I.@@
annu@@
Alps
00-@@
£
degrés
antivirus
injury
interfaces
distributors
plaques
dynam@@
characterized
Son@@
symp@@
origines
divul@@
drafted
glu@@
FOR@@
génétique
TRA@@
édé
practic@@
récep@@
Acti@@
protégée
supprim@@
142
ici@@
appl@@
Auto
Soyez
Communist
Bai@@
pp
tv
débattons
ampl@@
eil
posés
correspondance
choisis
enlarged
Basel
burn
Kal@@
ult@@
exclure
courir
gin@@
regroupe
Production
corrigé
domination
rentabilité
suspect
habitat
ility
practically
dryer
dence
Malta
engag@@
viruses
breeding
doter
histoires
Laurent
younger
Vu
precision
foule
Korean
spécul@@
outset
compil@@
recevez
iles
modest
immigrés
Hortons
vieillissement
quantitative
Claude
ITY
off-@@
promet@@
caractérise
ply
confron@@
SV@@
forcing
WHO
exer@@
africain
distor@@
Secretary-General
databases
motivated
souhaiter@@
gage
cumul@@
enthusiasm
texture
venons
rats
poster
pla@@
ground@@
ener@@
aero@@
interinstitutional
trouvant
waves
nent
prononcé
Afric@@
prog@@
signaux
Cé@@
thérapie
boom
diminué
artificial
comman@@
Hz
stipul@@
érales
GEN@@
tenues
craintes
maternelle
séparément
presentations
DR@@
Port@@
attra@@
expliqu@@
query
prouve
cope
revues
quest
isting
ergonom@@
essaie
cup
enjoyable
Coc@@
minuti@@
préavis
avantag@@
differently
admire
imperi@@
perfection
atom@@
charter
faiblesse
inc
fought
Compl@@
walks
circle
Euros
continually
bond
sap@@
attrac@@
encourageant
injured
ERE
agres@@
tackling
confor@@
orienter
brothers
réconciliation
Upon

tailored
advocate
alphab@@
reveal
protégées
Socialists
Bes@@
Plac@@
Tem@@
Rather
translations
entremise
Catherine
Back
lut@@
natur@@
causé
dominante
iss
Mach@@
issage
proactive
retenue
enor@@
Saudi
dom
endor@@
ro-@@
W.
limités
luggage
dissu@@
glori@@
rejection
akis
Imag@@
emprisonnement
Develop@@
ignant
souhaiter
extends
robust
suffisantes
Available
chalet
scienti@@
Free@@
Ry@@
carriers
enture
escal@@
pen
Sev@@
relevé
tante
temperatures
fundament@@
sey
scenario
Leurs
high-speed
barbecue
tool@@
promising
erron@@
Total
stop@@
céré@@
penet@@
Mira@@
rain@@
sailing
36@@
levé
night@@
main-d&apos;
Puisque
Oh
SAR@@
infringement
kitchenette
séminaire
entiel
Pla@@
seminar
128
Scott
surveys
ound@@
depend@@
zzo
tral
Marine
applicants
semestre
sson
Zo@@
humans
surprises
conjointe
Lituanie
catastrophi@@
Stan@@
1973
globalization
Tools
portables
évidente
communiqués
tini
Fau@@
rey
PS3
reader
mobiliser
Premium
Indonésie
FM
develop@@
blonde
injusti@@
readers
Ear@@
coach
1977
compétent
miti@@
authorization
Cav@@
seurs
diving
prints
occidental
assistants
Sym@@
Winter
innocent
CIA
établissant
publiées
blocs
racines
mettez
intitulée
90@@
Politique
Autrement
dirigeant
loaded
institutionnelles
arrondissement
etage
aying
centrally
entries
ALL
incendies
découvertes
Histoire
End
wir@@
Frank
institut
preventive
justifie
rescue
tem@@
bap@@
24-hour
guar@@
conclus
concentrated
présentations
ïque
const@@
Flo@@
Airconditioning
crist@@
églises
qualify
graphe
abandoned
inement
ordonn@@
Rue
parameter
spatial
financé
Mess@@
Fir@@
suddenly
loo@@
lessly
meantime
itations
quasi
profitez
ignez
Sinon
itures
fulness
donations
moon
horaire
affiché
complément
attentats
oeil
obligé
amène
étés
passages
volcan@@
ycl@@
irrit@@
tled
Process
Swimming
on-site
atine
Shanghai
avoiding
Brunswick
dévast@@
capacities
ranger
yon
visuelle
Nationale
ogra@@
Contr@@
interdite
inspir@@
sporting
thin
qualities
individuellement
élan
slopes
a.com

Objec@@
Junior
culte
exacte
cons
thirty
ы@@
Any@@
asses
Macédoine
reaches
accumulation
péril
sensitivity
etta
vil@@
grosses
brut@@
souffre
onic
Installation
Spec@@
asc@@
exporter
750
décisi@@
Eurostat
menant
mp3
saveurs
lles
outcomes
souple
mach@@
envisage@@
retrouvent
piliers
gin
economics
absorption
HS
38@@
reiterate
prominent
Esp@@
dépos@@
Monte
globalement
entré
submission
salut
mg
rels
ke-@@
conn@@
CDs
Islam@@
dealer
mènent
pag@@
Sound
veto
clearer
feux
Adam
solde
scru@@
reproduire
underline
consolidated
Airways
seed
puissiez
Ster@@
Général
Investi@@
heur@@
sportif
Traités
gares
clas@@
débuté
acceptez
alarm
restant
en-suite
V.
témoin
Situation
commises
Ivoire
Bus
aving
rational
70@@
ATA
discriminations
guider
dépôts
featured
Galerie
Ecole
render
thou@@
concern@@
concurrentiel
spectre
.-
Clinton
Var@@
Alain
Halifax
Norway
Santiago
transmises
rach@@
esthétique
tré
dress@@
road@@
mémor@@
sandy
Wel@@
Kle@@
réit@@
accueilli
affectés
parallèlement
Espace
REACH
th-@@
feeding
hat
1,000
eful
géographiques
scand@@
filling
authorisation
pera
unlimited
maker
Harbour
gouverneur
Secrétaire
jaune
provisoire
Ful@@
leather
rements
enza
rafraîch@@
ductions
conseillé
it-on
iti
ITE
veu@@
indépendantes
pairs
remedy
ο@@
vingt-@@
ill-@@
Against
я@@
harmoniser
pow@@
peak
Tennis
fromage
onnent
ø@@
enregistrées
exhausti@@
protests
appréciation
impératif
néglig@@
vivons
colère
Myanmar
Being
FL@@
deeper
sk
couches
Macedonia
paris
quo
filiale
capability
archi@@
assumed
forcément
gê@@
déroulement
istan
quotidiennement
sévères
dégager
gifts
seaux
conscious
promotional
c-@@
ficateur
gaming
Sti@@
grecque
punishment
irre@@
resistant
distinctive
identical
ented
tired
diplomatique
macro-@@
gly@@
ratifié
crop
oul@@
cessé
Pain@@
neuro@@
minimale
Lat@@
désast@@
notation
prostitution
Birmanie
Opti@@
TED
rives
trices
indul@@
circum@@
pling
Submitted
yen
illumin@@
plates
striking
complic@@
ected
még@@
illustration
exceptionnelles
innombrables
approuvée
Da@@
indiqués
Arctic
crème
premièrement
conducteur
créations
had@@
recruitment
discrétion
tines
Key
colline
vaccine
allu@@
équipage
émet@@
even@@
visualiser
produites
vocational
débat@@
bilatéraux
Commis@@
Steve
printer
dal@@
inutiles
ouvrages
scenes
boarding
pets
imposé
offence
rencontr@@
1.0
interrup@@
arrête
précon@@
onglet
Mugabe
félicitations
Timor
épic@@
Jackson
Form
Trin@@
ultra
2,5
pend@@
imprim@@
valu@@
ennu@@
trouver@@
expe@@
vities
manu@@
Alpha
testi@@
Camp
Round
enjeu
Budgetary
bottle
vre
GA@@
XIXe
nationalité
boundaries
MM.
assign@@
ön@@
Lais@@
lov@@
législatifs
sach@@
équitables
pid@@
Acrobat
urbaine
ensured
integrating
illusion
Jac@@
distinguished
warrant
identiques
trait@@
propreté
intergovernmental
peines
écrans
crit
trouvée
cuir
adjacent
ouver@@
symbols
fas@@
trajet
kilometers
entrent
yield
polit@@
estimation
sympa
emails
grou@@
potentiellement
cane
Té@@
materi@@
Sach@@
immunité
immunity
bled
respectés
quelques-uns
pittoresque
Mir@@
universe
judicieux
pull
paragraphes
ingo
moderate
corde
constructif
ffs
flu
sculptures
achet@@
grandis@@
photographies
explicit
éth@@
enting
influenced
DJ
builds
Collec@@
......
sorties
Easy
eing
maire
Slovenia
È@@
palace
displaced
Guantánamo
Tex@@
But@@
effondrement
faille
1945
Cold
beautifully
débar@@
érable
demeu@@
vor@@
Kinnock
maj@@
novel
accountable
çon
ι@@
prenantes
Albert
Cot@@
scenery
activé
Options
Cité
grossesse
liation
Infrastructure
interinstitutionnel
anticipated
écouté
emploie
HR
aisons
shoes
offences
Marrakech
nulle
toys
touché
chevaux
célébr@@
pregnancy
contempl@@
sacri@@
apportée
qualitative
iver
washing
pomp@@
lourd
rurale
samples
ige
PR
roues
livré
avantageux
collège
réalités
itz
fts
stricte
sofa
blancs
transporter
ensembles
brus@@
ts-@@
CG@@
bâtir
oo
Looking
attending
cir@@
preference
pub
blend
génétiquement
linking
frappé
Sir
Geo@@
brutal
fres@@
Chef
sejour
elles-mêmes
centi@@
constituée
oks
automated
Caisse
she@@
tip
voi@@
entraîn@@
sauvegar@@
measurement
Finalement
ferry
decor@@
pourrais
découvrez
Acc@@
Continu@@
trouvera
Kim
mos
Classic
célébrer
Lodge
cooperative
inary
segments
mortgage
secrétariat
attach
Incre@@
nis@@
roc@@
puissante
gui@@
Inv@@
Notez
Much
températures
décisif
safer
e-commerce
portage
controlling
composante
Lille
recipient
quelqu
sph@@
dérivés
counting
html
Manu@@
favorisant
ity-@@
tech
M.@@
rows
air-conditioning
tum
crédible
master@@
protects
inquiét@@
fique
panels
apprécierez
demandez
septième
tremendous
spacieuse
importer
twelve
UE-@@
colonies
genti@@
adjusted
Nordic
symboles
bull@@
rappel@@
congratulations
Gali@@
lingu@@
detection
passi@@
Challenge
thèse
Metro@@
threatening
ACE
GAR@@
specialised
Guidelines
dép@@
donor
landais
pdf
Political
inviting
Carte
shire
YOU
Albania
ultime
marcher
élégante
viabilité
delayed
alerte
Près
exprimée
varient
récupération
Ai@@
blocked
launching
Hop@@
matin@@
entu@@
convivial
Py@@
painted
ffe
prescription
dotés
préserv@@
initialement
defense
compatibility
Jack
istique
dominated
sagesse
sixième
permet@@
ITS
dop@@
distribué
Entertainment
verrez
cibles
å
Internationale
Dau@@
habits
~
cargo
triste
Donn@@
échelon
highway
Novotel
évi@@
deli@@
portugais
bloo@@
luck
dûment
harmoni@@
adjustments
pauvre
Sul@@
6th
quart
draws
stic
publicitaires
souffle
Mount
arily
bogues
OIT
sentiers
projection
enforced
onnes
mineral
effectif
Orient
Cher@@
1968
appearing
divide
somewhere
opes
éduc@@
breathtaking
dangereuse
tern@@
wind@@
défauts
geste
terai
Comb@@
enko
morceau
damaging
ASE
Romanian
chim@@
worried
insisté
Play
marquée
rêves
Secrétariat
dust
maintenu
pian@@
allusion
coherence
puisqu
cur
Projet
disparaître
efforce
chées
tourn@@
fond@@
marchandise
lentement
cles
confère
conservateurs
acres
dement
Accueil
transfrontalière
Année
oss@@
brac@@
Mont-@@
concrétiser
cotton
2014
acceptée
solving
deck
sondage
liant
Allow
Solidarity
tori@@
Arm@@
propagation
Army
excursion
domestiques
randonnées
12-@@
Salvador
gem@@
institutionnels
ott
Seine
chart
Bali
unanimous
élev@@
régissant
abol@@
stroll
environnements
partiel
volu@@
tric@@
Ges@@
dor
affecter
recherchez
assist@@
regroup@@
Little
mâ@@
déploy@@
divergences
.ch
thinks
await
Jer@@
Try
démocratisation
respira@@
101
autorisées
EMU
Cyber@@
Mali
selecting
filiales
connecté
Démo@@
Poutine
amené
flot@@
saisie
traverse
Gren@@
pneu@@
extrêmes
bilité
Oslo
5,000
½
rentrer
inch
backing
wearing
forfait
comptabilité
influencer
pseu@@
vocal
certificates
Summer
douane
Future
cheaper
Fol@@
progress@@
digit@@
faction
inequality
provinciaux
précaution
CV@@
reinforced
Naz@@
lens
confrontée
handicapés
UM
hem@@
celebrations
déplo@@
olympiques
avant-garde
Gén@@
rigi@@
TY
outre@@
households
laboratoires
couvrant
L.@@
angl@@
notify
phénomènes
dau@@
Denis
bénéficiant
License
globally
dered
woo@@
mixture
но@@
twenty-@@
rions
Edward
les-@@
défin@@
anti
Ken@@
vide@@
profiles
enfre@@
singer
Reserve
Hilton
asu@@
Blu@@
incomes
sexuels
allies
legacy
wisdom
redou@@
Whatever
transform
HE@@
idi@@
Pad@@
T.@@
baggage
vité
TGV
Love
Frontex
Notice
formally
esco
épisode
élarg@@
répartis
Libye
Miss@@
pement
coré@@
F-@@
rank
ć
thermo@@
1-8@@
ament
ennemi
typiquement
jal@@
incompatible
attribuer
abortion
retro@@
lumineux
inaire
figurer
onnelles
là-bas
touched
hazardous
dirai
comportent
œ@@
vas@@
arbitraire
immobilière
débuts
Down@@
lif@@
locally
measuring
disposés
encad@@
conseill@@
sier
financements
Top@@
spécialisées
Noire
LY
Check-In
impliquées
vicinity
entale
stating
activate
poss@@
Ces@@
Engineering
Lite
decentr@@
Ober@@
examining
just@@
Statement
reçues
aideront
justes
psychi@@
égi@@
regis@@
toilette
Construction
etic
carburants
boîtes
otage
compétitive
stem
airement
sincerely
exacerb@@
dive
Statute
Edinburgh
nel
sos
CAD
sommets
infer@@
Stati@@
tionne
deployment
vagues
inventaire
dynamisme
Stuttgart
ev
ographie
marquis
Am
220
gear
stimulus
pact
témoignages
impulsion
e-t-il
ounce
étonn@@
Channel
émergence
zione
Politi@@
sister
cross@@
SR@@
copier
peaux
surgery
économiser
campus
rich@@
zia
CU@@
Users
coordonnée
Unless
kl@@
porte-@@
reveals
explanations
Property
1930
terrasses
golden
Chile
Lyn@@
mainten@@
licensing
impressionn@@
reconnues
Ep@@
augmentent
TOU@@
2.1
ision
Trop@@
locate
rassembler
parlant
deleted
olu@@
immobiliers
rarely
fidèle
oth
Fitness
anyway
compren@@
ò@@
cht@@
processeur
Commons
customized
Ath@@
headed
chy
Institu@@
regarde
impe@@
Lit@@
independently
Domaine
brève
meaningful
Eh
concentrations
recommander
Eco@@
Back@@
condamnés
lè@@
Â
enregistrements
ATE
Smart
compétents
suivez
Jones
boo@@
fasc@@
exposer
Telle
interference
locked
attempting
Sky@@
sérieuses
assis
mond
incorrect
teeth
guitare
single-@@
Comm@@
approfondir
issantes
vessel
elite
vern@@
kom@@
carrés
Luc
adver@@
Bulletin
gene@@
Tourisme
détruit
Sant@@
Députés
timing
psychological
Anna
branche
Scotia
coton
Rad@@
oxy@@
Wall@@
Stephen
insert
9001
cruci@@
Check-Out
gan
ennemis
ien
tance
structurelle
Sustainable
avertissement
Clean
porters
permanently
sincere
§
2.2
compositions
sively
sensibiliser
relancer
Pel@@
instabilité
consacrés
berry
assurément
disagree
oppression
sends
démo@@
quitté
instru@@
ciné@@
perceived
noti@@
hr@@
annes
airs
allemands
AVG
strikes
niers
transporteur
impressions
supplement
consult@@
dental
misleading
fits
Ric@@
generic
accél@@
developer
convo@@
Human@@
contenter
retourne
Delta
Regarding
oting
résolus
advisory
part-session
alter
effici@@
Palma
poursuivi
oder
endorsed
tar
des-@@
sar@@
enny
writers
Jet
volunteer
ent-elles
éclat@@
hopefully
poche
dirige
EB@@
oo@@
34@@
generating
licenci@@
consist
prévoient
Trac@@
7th
espérance
bath@@
fondamentalement
open@@
yours
deau
formés
sonores
demanded
hunting
Singapore
legs
Major
detect
sui@@
subs@@
achi@@
transfrontaliers
journalist
intéressent
Située
itali@@
exis@@
verb@@
desquels
Ref
forestation
ost@@
kon@@
Gau@@
tox@@
crash
Niger
condamner
métiers
Out
right-@@
préfère
क@@
ж@@
stringent
Jews
Clu@@
échoué
m.
chaudes
personnalités
Merkel
réservée
000@@
culaires
there@@
theast
mir
attest@@
SM@@
reposant
malaria
scrutiny
goûts
suscite
rum@@
Eng@@
planifier
BB@@
acheteurs
nings
Info@@
pensais
poursuiv@@
indirectly
protein
échang@@
soirées
protective
facilit@@
Simply
Gold@@
non-profit
processor
DNS
Long
м
indiquée
Photoshop
aggressive
portera
URE
Anim@@
dégradation
pertinence
érir
introduces
malade
seeds
quin
intime
ا@@
Superior
conve@@
marquer
Wikicars
Trek
axée
transc@@
stom@@
organizing
Haïti
IRE
H1N1
enforce
folk
jon
impatience
simplified
jer@@
dat
concilier
opérer
attache
tournant
petition
faç@@
rais
anymore
HT@@
magique
lip
Annex
mess@@
moul@@
réflexions
dictature
livestock
shirt
supporte
soulève
abord@@
characterised
Moi
reactions
ore@@
lay@@
sures
assurance-@@
Active
como
tied
vivants
plur@@
fluctuations
compan@@
résolument
inn
i.e
chin@@
référ@@
recognizes
galleries
ishes
casinos
apais@@
définitif
conditionné
resolving
Î@@
compétitifs
accompagnée
protéines
0s
symbolic
camions
accessing
Belle
érance
settle
coordonn@@
disc
incurred
soupç@@
1972
exprimés
Sainte
immeubles
n.@@
nia
serie
largeur
concludes
compu@@
smoke
Creative
poli
neutral
séparés
automatiques
offenders
désaccord
editing
fantastique
sculpture
LateRooms.com
consacre
architecte
Dét@@
ruled
séries
FI@@
audiences
intimidation
currencies
réalistes
costly
prevents
excès
miroir
Pass
piles
Index
buffer
Roger
dairy
Joe
imperative
annon@@
Tun@@
pedestrian
remarqué
ennent
representations
recommends
Advisory
nord-@@
amélior@@
étern@@
ECO@@
networking
envisag@@
avan@@
viend@@
Univers@@
continuellement
lai@@
comptables
stream@@
aca
Malte
Jeu@@
Wellness
gau@@
atténuer
fonctionnel
expulsion
DIS@@
Additional
LD
plaque
Arc
coupables
limiting
allé
lir
chinoises
discerning
écrits
modifiées
Sélectionnez
azione
illégal
visuels
mystery
remplacé
Antoine
alliances
controvers@@
indicating
Cotonou
sanction
safeguards
logy
dictions
trails
preserving
definitions
Lee
.Si
h-@@
éman@@
giant
socially
éditeurs
Guy
geographic
pavillon
Ghana
isser
Georges
révéler
constitutionnelle
prolonger
entin
ova
TSX
liti@@
rejette
consisting
créées
ferai
verified
dispu@@
projections
œurs
Gé@@
métro@@
terror
Shuttle
iti@@
Ji@@
culmin@@
Chev@@
virtuelle
aiming
Tak@@
fleu@@
sexuelles
Quick@@
hybri@@
encomp@@
And@@
évoque
spreading
Thaïlande
intent
chèque
storm
Gaulle
drops
évènement
ême
absurde
spécifications
Stay
fireplace
Abu
WA
Ow@@
feu@@
Heureusement
croient
israélien
constructeurs
colo@@
burning
bicycle
OC
Navig@@
portugaise
sachant
brou@@
vas
cc
engagent
rupture
ons-@@
barrier
prêter
Unlike
procedural
boutons
bic@@
Š@@
essay@@
Anyone
çait
peintures
Inclu@@
N.@@
para@@
comparables
peut-il
Days
rob@@
kir@@
hotel@@
bloquer
edy
recycl@@
cking
pertinente
dispers@@
conversations
seur
repren@@
proprement
furnishings
ign
gastronomie
déterminant
Musique
PVC
Hay@@
1500
gravement
publiquement
confirms
lève
facilitating
ethics
dispropor@@
Chacune
avortement
Mod@@
coexistence
interactions
buttons
enveloppe
Yahoo
pill@@
étonnant
attempted
shu@@
18-@@
fédéraux
pommes
fiction
revolutionary
Geor@@
lap
Schi@@
fusi@@
Berlusconi
pus@@
Bretagne
vineyards
OM
configurations
irani@@
gi
tion-@@
commu@@
dépenser
lad@@
inappropriate
indice
boisson
Compos@@
Maz@@
nick@@
particules
enver@@
fossé
admitted
honnête
reprend
terrestre
lah
littérature
mentionnées
weapon
RER
titulaires
alternati@@
accou@@
cool@@
visité
gross@@
paragraphs
inevitable
marble
criminals
e-mails
itions
chaus@@
appara@@
Outlook
culer
Slovénie
Roy@@
frames
grati@@
categ@@
cession
Capit@@
ka@@
intensifier
réformer
Immigration
är@@
mat
techniciens
cier
time-@@
vaccin
bathing
Albanie
guess
envah@@
Ibiza
emotional
susciter
Jan
urged
chau@@
swit@@
14-@@
législature
asser
remonte
Eurocopter
LAN@@
Fru@@
franchement
Haut
infir@@
préoccupe
pipeline
roughly
Ceux-ci
absolu
haus
cycling
tenez
BU@@
SG@@
Written
Nation
incin@@
Twitter
Accès
overnight
3.5
boulevard
pile
implantation
DU@@
concernée
sont-ils
alt
Aid
vegetable
payés
contradic@@
menti@@
procure
Palm
Lot@@
mans
rehabilitation
extradition
civi@@
descrip@@
pointing
onze
Collège
manages
Level
offset
Norvège
Fé@@
railways
satisfaisant
statute
endeavour
tat
^
paras@@
sponsors
edia
countless
one@@
vation
param@@
codi@@
scores
fixée
Trust
mps
fondations
four-@@
espoirs
appliqués
lip@@
égards
imparti@@
hood
juice
alistic
devoirs
10th
gars
a.m
Lanc@@
lining
polite
exclude
grid
Chili
ng
donnés
gru@@
yl
garanti@@
courtyard
dégag@@
argued
remo@@
écra@@
frozen
Zealand
collecting
exercises
jette
coûteux
proximite
audition
overseas
Guatemala
diminis@@
TN@@
ops
mortalité
Mau@@
tentent
témoignent
MIN@@
openly
UNE
gastronomique
valued
upload
Focus
opt
entamé
cultur@@
Below
retenir
maintient
Mozilla
acité
Ple@@
aret
dication
bell
faisaient
defines
entends
contrôlée
toler@@
contr@@
gués
varié
Archives
Visual
accompagnés
DN@@
diagnosis
Revenue
pousse
massacre
civil@@
passive
silent
fièvre
existait
decides
menés
six@@
mera
gradual
ista
Ski
acid
Norman@@
dev
refusal
entam@@
Tarifa
acceler@@
bot
assembl@@
Simp@@
grandeur
brand@@
lob@@
tlement
proliferation
tuy@@
Frank@@
lo-@@
partagé
criterion
spl@@
éc@@
organisms
exigeant
Caraïbes
Champs
gible
érations
arr@@
beside
impressionnant
Pont
respectées
Texas
servis
allégations
Carlo
trouvés
isa
paradise
pertur@@
kets
aro
accomplished
Imp@@
fiez
Co-@@
tops
contracep@@
seize
Exhibition
bénéfique
Dep@@
artisans
épouse
urgente
issants
Disney
telec@@
opponents
acquise
automotive
etto
documentary
Jun@@
socio-economic
ander@@
Pul@@
Personnel
Bis@@
délinquants
sums
pourvu
Lido
bler
eping
pins
graphical
modeste
emic
parvient
aliz@@
ondes
personnalisés
dépassé
optimum
eliminating
iteur
cial
ede
BS
Secure
Far
surfing
substitution
resumed
congé
télévis@@
gagne
emprunter
Senior
ESS
dén@@
Chechnya
therap@@
intéresser
Muslims
exhor@@
quasi-@@
dictatorship
investi
onique
sat
dramatique
traction
soi-disant
els@@
royaume
robe
préférés
kov
Magazine
appren@@
provoque
eria
enseignements
tenti@@
compositeur
voudrait
composés
médicales
comparative
Prestige
Calgary
ellers
traverser
implant@@
co-operation
las@@
Hur@@
O-@@
hockey
earthquake
Democracy
activated
mort@@
lls
Aero@@
enters
masters
rédiger
gement
enced
confér@@
Naturellement
Core
Belgrade
incu@@
euil
packed
attribué
marbre
Manchester
Ö@@
FS
concertation
Brow@@
rédig@@
exposées
orph@@
jec@@
att
terraces
fridge
émergents
renferme
CM@@
Additionally
Unit
blog@@
ralentissement
Coupe
Sydney
dense
joints
bow
ECHO
Everest
separation
mouv@@
Glob@@
impati@@
Records
dine
claiming
rappel
bic
défend@@
tability
posséder
inevitably
tuer
calculation
comptant
repression
ë
recomman@@
papiers
paci@@
tet
.000
Vac@@
symbolique
dramatically
albeit
acceptent
précieuse
XI
pushed
taxis
ib@@
Broad@@
urbains
réjouissons
Affi@@
éné@@
itinéraire
factures
otti
épidémie
logistics
praise
protagon@@
laying
payant
osité
choc
média
pouvons-nous
WLAN
posting
exon@@
gagn@@
Henry
transatlantique
varieties
-free
finit
shock
R-@@
Bluetooth
initiate
æ@@
ci-@@
primer
Watson
stairs
birthday
hypothèse
ontari@@
Haute
cohérent
résidentiel
coordinating
cum@@
pluri@@
oles
synthé@@
cinquante
nommée
Vin@@
certificats
pira@@
baroque
accusé
Eric
toxic
Deputy
faut-il
acquisitions
Naturally
impliqué
exploited
portées
logie
escor@@
personnalisée
Ideal
anonyme
écosystèmes
PSP
Kno@@
Maritime
Colombie-Britannique
oming
roman
Deluxe
reciproc@@
décid@@
impetus
ensi@@
chaises
affron@@
insérer
Rose
Soc@@
gagnant
scal@@
divulgation
administrator
eum
aan
difficilement
ru
suits
obligés
Price
Partners
enna
élégantes
turque
servira
Partie
ignent
Quartier
Converter
Lom@@
tariff
Neither
plateformes
nowadays
medicinal
Riv@@
pillars
occu@@
endre
ICT
partagée
souhait@@
Buil@@
représentés
gourmet
maroc@@
Div@@
vra@@
IGC
void
resume
sacs
likes
ig
esc@@
thor@@
dead@@
character@@
maximal
manufactu@@
muscles
after@@
eri
10,000
innovantes
varies
tués
origins
disposé
Messenger
Nic@@
dirigée
promenades
fundamentally
empris@@
COMP@@
renvoi
gres@@
CEN@@
Sharon
disappeared
afgh@@
wedding
FIN@@
municipalités
invisible
constatons
attentif
valables
temporaires
délégations
onnant
Bap@@
ignorance
bronze
Simon
Blizzard
arity
cook
Cala
meme
planche
décisive
OP@@
ageing
shut
Département
ajust@@
tico
magnetic
Never
arrêtés
voyag@@
piscines
margin
engagées
ank
inhér@@
tubes
dropped
filtres
Types
coïn@@
tionnée
deciding
NET
enta
Fed
architect
Desktop
savourer
litur@@
Mem@@
variation
Correc@@
NB
dessert
Commentaire
circonscription
filters
Cru@@
Remember
inflig@@
compromises
compliqu@@
safeguarding
beg@@
prizes
clai@@
seign@@
Commercial
plasma
Len@@
thématique
responded
aques
Gard@@
brefs
recreational
landing
irré@@
stics
viti@@
multilat@@
pubs
alé@@
inte@@
present@@
drapeau
éte@@
remerci@@
wished
écar@@
view@@
culp@@
émanant
lending
ishment
inti@@
es-tu
Sto@@
factu@@
tz@@
witnessed
affichés
Gy@@
vérifié
arities
USS
Henri
Pope
dress
définitions
f-@@
vigilance
che-@@
Tours
découle
dow@@
250@@
ozone
conviennent
inspiré
publie
glo@@
1990s
complications
relle
suspected
à-@@
famine
acquit@@
placent
composent
chantier
issance
gouvernementale
surprenant
updating
illons
agon@@
retenu
existed
clic@@
Students
Estate
abstained
appel@@
multinational
Five
thereof
spell
étroit
domestique
Oli@@
normalisation
Est-il
sommaire
rencontrent
supervisory
Screen
grains
saison@@
laissez
SK@@
105
rests
réun@@
sponsor
étal@@
Bolkestein
Norm@@
FTP
static
Frattini
Ander@@
Living
semblait
thermique
moto
Const@@
légers
bouteille
snack
organiz@@
resid@@
tivement
yant
autonomous
approuvés
Europe@@
rabais
Hague
FA
pron@@
manus@@
compenser
akes
emphasize
ultérieurement
illustrations
salope
mitting
CSS
sombre
ression
Name
wall@@
eng
specialties
suring
divis@@
Spy@@
rétablissement
Ron@@
TIC@@
ellation
MX
Bom@@
aris
coupable
excuses
formulé
palestiniens
broadband
Hard@@
foc@@
dants
Audi@@
impro@@
TU@@
elo
enburg
EP@@
spectat@@
danois
ima
acceptons
saisons
documentaire
suffi@@
cano@@
réglementer
Egyptian
genetically
Physi@@
variées
ò
ERS
indemnisation
Jérusalem
Fem@@
tags
galeries
revers@@
Lausanne
vacc@@
assurés
Angola
furthermore
proxy
1971
istent
Turin
recevront
asiatiques
nicht
advertis@@
Laeken
plaçant
frappe
fü@@
Jordan
d.@@
bio
varier
Benjamin
mounted
submitting
optical
ferroviaires
signée
audiovisual
descendre
Fils
saura
pharmaceutiques
buyers
École
queries
défil@@
fardeau
Arena
réparties
débattu
amente
aspir@@
consolidate
placées
bey
alog
rea
dions
lourde
reward
unie
fragment@@
establishments
Performance
elines
CET
dédiée
frontali@@
thre@@
ône
MotoGP
souffrances
désigne
parviennent
dilem@@
consoli@@
appell@@
illégaux
continuity
wouldn
avo@@
Flor@@
VEN@@
real@@
Figu@@
Bud@@
transforme
trail
huiles
Tob@@
comportant
sentent
AF
pays@@
originaux
dage
eca
ANY
fati@@
Wit@@
Européen
Virtual
combustion
Reform
Mic@@
Jardin
deadlines
suggéré
owed
rub@@
eter@@
goûter
container
Diam@@
desert
financés
déser@@
operative
découv@@
entation
wanting
Bâle
confidenti@@
loads
fabrique
fondateurs
lying
dériv@@
isolement
indirectement
mount
kits
inia
sauvetage
Again
vulnerability
litres
drawings
opath@@
logi@@
ña
Compagnie
tian
conduc@@
ukraini@@
Assurez-vous
Rogers
childhood
inent
U.@@
extrac@@
chère
opportun@@
cabin
meurtre
biocarburants
isson
vices
trouveront
lobbying
possédant
enqui@@
esté
validity
Recently
traductions
sburg
tastes
hér@@
acks
immin@@
ratify
exemptions
bridges
1.3
prononc@@
Seuls
chirur@@
Century
essayez
instability
Swe@@
Magic
establishes
riez-vous
augu@@
Spéci@@
stipule
dical
gli
ram@@
super-@@
Gospel
Avi@@
systematically
peut-on
textures
exceptionally

Fern@@
émin@@
subventi@@
génère
enseignant
lowing
muy
exceptionnels
fausse
miracle
French-@@
nik
slogan
Scientific
naval
asiatique
vul@@
Mike
épi@@
politiciens
criti@@
ition
по@@
finishing
Toujours
renovation
Brun@@
cler@@
free-@@
remercions
Kab@@
evaluated
enregistrée
angles
Revolution
monopoly
Resolution
3M
opho@@
arises
ate-@@
conservé
lifting
dio
ky@@
égyp@@
episode
dt
Pers@@
estimer
professionnalisme
incontournable
Bé@@
amer@@
execute
Money
athlètes
obé@@
thesis
sionn@@
reconnaissent
Saskatchewan
pru@@
gratuites
serions
Statistics
Tchétchénie
continué
Afghan
harmonised
termination
stre@@
distributeur
associe
simpl@@
Basic
Rica
WH@@
délégués
variétés
lisi@@
colonnes
insist@@
billions
laundry
stal@@
eur-@@
ao@@
as-@@
naz@@
permanents
salary
outi@@
gend@@
attacked
économiquement
effectifs
tué
devions
fuite
Color
clôture
identifiable
Tow@@
résidenti@@
profitent
Travail
exclus
Rimini
notices
baisser
trans
tuberculose
Lux@@
besides
colon@@
eval
ataires
dissi@@
Comfort
Metal
Soft
unis
Les@@
nuire
adoptant
Bref
élite
ez@@
implic@@
hygiene
Countries
abordable
chil@@
vention
Membre
detected
conseillons
nominal
juridiction
overwhelming
commands
Analy@@
mentionne
insi@@
heureusement
brochures
este@@
essed
Figure
quera
détecter
GBP
103
contamin@@
municipalities
non-discrimination
Vincent
на@@
têtes
methodology
Castell@@
drew
Barnier
OL@@
confronté
itting
contraste
Oper@@
différemment
Oxford
ttes
Albu@@
Montpellier
confer@@
perc@@
forbidden
bébés
chronic
japonaise
Number
Visitez
conceived
Bonus
PwC
contradictions
antiqu@@
écho
cathedral
Orange
incomparable
vigou@@
robot
001
antine
souten@@
Eli@@
doigt
CAN
sexuel
fixées
CEE
créateurs
priced
cand@@
redistribution
distributions
Hô@@
ML
Long@@
mystère
Sof@@
blocking
essor
14.@@
panier
ained
Lum@@
contrainte
pressures
découvre
rand@@
improves
sponsored
т
privileges
mentions
Zend
forever
Customs
distinguish
gle
semble-t-il
noisy
lice
profils
assujet@@
envoyée
aviez
brilliant
mutuellement
nourrir
explic@@
ologue
arrestation
privilège
Books
Brazilian
realised
urbaines
nic
YouTube
inal
Maybe
igno@@
Hat
audio@@
kms
OT@@
Continental
francophone
apportera
ods
gien
capitalisme
seins
tière
cket
Mai
compet@@
aux-@@
Maurice
real-time
envisaged
matériau
consciente
accompanying
asa
ôle
outline
identifié
securing
continuerons
sommeil
tising
nières
ML@@
buyer
recu@@
manquent
memories
reminded
Lon@@
LED
EG@@
7h00
lang@@
discer@@
relais
Reli@@
lem
hate
eras
trem@@
Num@@
anybody
aisse
lics
time@@
racy
étiquettes
hoping
Kazakhstan
Governments
favorablement
trou
enceintes
tank
wit@@
défaill@@
Sum@@
240
spam@@
Cape
frustration
noci@@
115
Sky
colis
ouvertement
vrais
gang
reflecting
quot
fed
rendra
attiré
statue
genocide
éventuel
phot@@
Parole
48@@
TEC
Ligue
pèler@@
synergies
installée
rentable
vag@@
Follow
closest
Johannesburg
grass@@
Arabia
notions
bold
Yves
affecté
enlever
competing
lâ@@
congratulating
onnelle
reliés
aig@@
récolte
souti@@
t.@@
Estonia
combats
crées
insécurité
BLE
11-@@
Scandin@@
inadmissible
Pow@@
impressed
insu@@
maîtres
gla@@
doigts
align@@
Vide@@
valid@@
ponts
résister
acute
spac@@
eh
injuries
gaps
lator
holes
rencontrés
valides
transformé
guitar@@
coopér@@
Australian
statu@@
sensations
finger@@
honte
horri@@
ssen
clandestine
pois@@
vitale
caves
rection
investiss@@
épargn@@
mood
invoice
ideological
aimez
otte
slide
trouvait
Versailles
pe-@@
fondements
facul@@
imprisonment
shooting
appartenance
plot
energies
elet
bric@@
ective
décisionnel
Vene@@
bill@@
Beg@@
fen@@
Leonardo
protocoles
contraignant
fulfilling
êt
thick
Hollywood
staff@@
ranges
rétic@@
Hier
acoustique
réjouir
gris
repu@@
Ile
abouti@@
vaccins
seaside
démocraties
originales
mic
Still
royale
mosqu@@
wast@@
stéri@@
rol
pursuit
Vice
derni@@
mètre
contractual
ett
séparé
Work@@
Sites
muti@@
vus
chette
ané@@
partielle
nôtre
intelligente
sport@@
igu@@
bia
withdrawn
sequence
radiodiffusion
Turk@@
ре@@
Mercosur
Cul@@
émotions
renouvelable
retailers
raccor@@
resorts
insec@@
Throughout
mme
delegations
cone
architectures
Kun@@
Assessment
eues
CF
Clau@@
Mail@@
treating
clip
Memory
annexes
rigoureux
rami@@
elimination
H-@@
Documents
Stop
fem@@
pandemic
UEM
pé
yo@@
Erasmus
formulated
Syst@@
σ@@
sustain
AB
lined
polis@@
conf
AGENCE
may@@
hélas
How@@
tendency
2000-@@
exquisite
Académie
précoce
conditioned
Athens
Moder@@
flexibles
collaborative
confon@@
jouissent
restreint
Swoboda
Thom@@
Lorsqu
firewall
recipes
métaux
Fid@@
orn@@
fantas@@
Tari@@
verra
fice
Autre
hop
cités
prodi@@
Andalu@@
distinguer
blocage
disadvantaged
harder
exper@@
CPU
painful
réjou@@
Celui
régulières
G.
polic@@
Êtes-vous
intervient
centes
eligibility
pénales
ographic
agro@@
linge
environn@@
poussé
sightseeing
brasserie
Dynam@@
délicate
Radi@@
spectateurs
isl@@
Important
cades
weakness
lend
compétitif
PAS
monté
Centres
oma
disappear
Stardoll
fold
formerly
rentals
deployed
absurd
norms
Built
mare
dam
ouvrant
Suc@@
soup@@
athletes
Madagascar
arians
proves
halt
й@@
Bla@@
appuy@@
brush
unanimity
indo@@
nocturne
relevance
italiens
CRA
age-@@
doc
fournira
rolling
atically
Elec@@
Consulting
Pékin
kh@@
sympath@@
13.@@
évolu@@
révol@@
Apartment
elo@@
vents
déten@@
intuitive
Nouveau-Brunswick
IDE
intermédiaires
combustibles
éthiques
mathem@@
Unix
notori@@
tably
Mob@@
appellation
magie
unified
fatigue
etés
alie
definite
expul@@
musiques
mû@@
deal@@
etti
exigé
équilib@@
jurisprudence
TEL@@
lon
replacing
alis
détermine
doulou@@
fabriquer
pregnant
matur@@
tailles
thon
indic@@
Poettering
sues
restitu@@
tomb@@
puri@@
romp@@
incendie
Kre@@
Rain@@
FO
añ@@
champions
octroyer
accompany
divorce
rad
mélo@@
techni@@
shar@@
densité
mus
mière
Whilst
flore
eco-@@
privilege
Thai
boulever@@
compiled
génocide
Mini@@
Arabie
Oracle
diabetes
fragmentation
12th
réparer
reas@@
Logiciel
impressionnante
shots
substantielle
public-@@
élever
Mouvement
légalement
champ@@
tig@@
fière
transfé@@
Canadi@@
tières
disciples
Loire
nº
vieilles
Coalition
cée
démo
Virgin
courantes
Seattle
experiment
lled
ope
Sing@@
enda
WE@@
fabulous
nullement
entures
Brand@@
bathtub
SIDA
identifiant
lan
arez
containers
woods
imprimante
ventilation
tendre
hammam
rear
valuation
prescribed
maîtriser
alisant
conservés
rak@@
annex@@
rayons
deterior@@
récompense
haine
dioxide
Prendre
maux
ь
combin@@
vitesses
répar@@
aï
Mode
legendary
ен@@
Lincoln
éditions
Nombre
arriver@@
Certain
refres@@
informe
manifester
mothers
second-@@
6-0@@
endront
fiquement
sten
renouv@@
substitute
Planning
Mak@@
garantis
atouts
Medic@@
towels
pocket
rece@@
pourparlers
Fontaine
privilèges
duced
indices
evi@@
cuisson
Marie-@@
desquelles
lla
acceptées
Peu@@
seas
gouvernemental
assiste
interprète
chômeurs
expérimentés
couver@@
duly
mate
turer
verification
disastrous
hongroise
improvis@@
dormir
inscrite
rices
tourné
Though
cock
insuffisante
secrè@@
air-@@
Men
vres
ject
VE@@
endless
renseigner
désert
juridiquement
diabète
Montparnasse
actrice
extrait
auxili@@
félic@@
remarquables
browse
TEL
retiré
enberg
meter
Buy
xdux.net
transnational
respon@@
inévitable
Premi@@
platz
experimental
dérogation
activis@@
capitaine
routiers
lifetime
fish@@
couvrent
agenc@@
demeurer
amitié
FP
empreinte
collectives
tasty
diction
definitive
incorpo@@
allum@@
oid
contactez
ls@@
profiter@@
rag@@
parra@@
resté
racine
inter
possess
organising
qua
coqu@@
realities
format@@
humour
gén@@
NH
tragique
width
criptions
chamber
Unis
expresses
defeat
hones
fabrics
solv@@
résul@@
liberty
célébration
Fel@@
shi
verses
recul
LG
Écosse
tender
Francop@@
Wer@@
tsunami
specul@@
monies
locu@@
obe@@
arrêts
sooner
99@@
&apos;une
Body
exercent
déployer
135
prit
différends
inspi@@
tow@@
cir
Soli@@
tch
asph@@
delightful
stan@@
rateurs
curr@@
arly
arder
Moldavie
Mexican
onna
Lac@@
atie
ape
Premières
fidu@@
tee
décrites
alert
mysq@@
unilateral
atout
essayons
adressée
trendy
Cypri@@
baign@@
Parfois
originaire
Real@@
soutenus
dieux
Lob@@
Images
assisted
horses
brési@@
jusque
talented
unexpected
aft
family-run
déç@@
tranet
Herzegovina
Das
persécu@@
Droits
Cler@@
13th
réglage
tas@@
V-@@
inventions
downloads
indigènes
til
passionate
Ukrainian
autrichienne
organisationn@@
Natura
shame
deleg@@
uniform@@
ony@@
14th
literally
incitation
lax@@
nettoy@@
leg
debts
aciones
plex
évolué
round@@
end-@@
entrant
cient
omet@@
toxiques
emis@@
ménage
deposits
2.4
x02BC
archiv@@
opère
Sakharov
formules
bile
Modi@@
Medina
ruption
montagn@@
accusation
occurring
Night
échantillons
emy
ship@@
Ok@@
équival@@
Regu@@
raccour@@
franc
Tai@@
cture
delle
numer@@
pan
ague
Treasury
missiles
strip
diplomatiques
observé
suspects
Peti@@
Mig@@
ajoutant
inland
scrupul@@
luxuri@@
pouces
rattach@@
feasible
escalade
Burkina
gérés
sheep
abstenir
tide
readily
étiques
animée
précisé
expres@@
ART
inging
polé@@
thane
Chers
ataire
Nep@@
fonder
âgé
sén@@
rape
coord@@
paraître
finement
plug
fratern@@
détérioration
mb@@
Stor@@
compassion
forcé
Study
flower
Gazette
micro
iner@@
Olymp@@
survivre
désesp@@
arc@@
spir@@
adéquats
fumeurs
Miles
You@@
thread
scènes
patron@@
misère
lourdes
documented
premi@@
exécutions
deduc@@
beurre
demander@@
presid@@
apparu
laptop
broadly
tuelle
teux
commandement
INTER@@
settlements
sleeping
garçons
forcement
evenings
abond@@
Create
ex.
88@@
amic@@
téléphon@@
suspendre
Eth@@
macroeconomic
illu@@
112
underway
barb@@
Sauna
fausses
1969
ety
tones
ambigu@@
monopole
counter-@@
Nag@@
VOUS
far-reaching
Hezbollah
dépense
tastefully
francophones
constitutionnelles
orchestre
shoulder
délicat
Ontari@@
OL
Cau@@
Bangkok
requesting
cation
rot
cussion
pots
Cuban
amar@@
aî@@
Dri@@
PRO
combiner
Partner
régu@@
patron
ophone
care@@
Mise
agé
chicken
healing
chargées
ententes
ister@@
dunes
UEN
emballages
afterwards
Lud@@
municipalité
faiblesses
héros
timber
aser
aign@@
ा@@
Stre@@
facturation
pharm@@
investig@@
happiness
stabiliser
delegates
call@@
lays
soulevées
cattle
Orchestra
lings
sangu@@
tioning
restric@@
engaging
progressé
cheque
tioned
plant@@
Leone
yn
song@@
Dig@@
Archi@@
proving
blessés
heaven
BEI
AVI
croître
oro@@
ş@@
extract
intact
foyers
dson
traveller
eliminated
moyennant
excluding
mécaniques
Decision
memorable
Goals
sèche
Ga@@
quotidiennes
captured
sz@@
emph@@
appliquant
Royaume
tanks
grass
éducatif
commodity
abordés
enz@@
sympathy
Communities
Sard@@
virtue
Prevention
thrown
embre
acknowledg@@
sportive
breast
chapitres
temporarily
9th
acoustic
monte
visés
lity
Californie
remplace
offrira
continuons
Petitions
convey
Mayor
clô@@
Burundi
démon@@
Guinea
Maxim@@
hore
endus
arro@@
consécu@@
traitant
alien
Quatre
PP@@
ardo
furn@@
Jes@@
configured
tiver
déplacées
formée
persecution
déroulent
execu@@
expenditures
Lic@@
offshore
CIG
aug@@
quoted
sett@@
sacred
turb@@
enemies
versible
66@@
shipment
dient
turn@@
prou@@
Erika
Océ@@
earnings
Ach@@
medication
dying
rette
insight
Cambodia
Depending
Bruges
alt@@
cerveau
bacteria
efforcer
Et@@
Beautiful
promptly
Ask
Conver@@
cotisations
fastest
те@@
capitalism
demand@@
propice
Near
déplore
lik@@
traî@@
-related
VISA
oils
electronics
believ@@
transmit
lient
naviguer
rechange
gagnants
employ
marketplace
Centrale
dear
retention
révolutionnaire
vulnérabilité
partisan
destin
trage
severely
vocabul@@
continueront
Way
synonyme
gâ@@
Better
surplom@@
Mini
encountered
inen
Vau@@
Г@@
simil@@
charmante
XXIe
bouteilles
CER@@
Sam
venait
vigilant
Patrimoine
Lady
Trésor
Mazda
priori@@
conviviale
incredibly
Shine
3.1
ecosystems
jungle
tiez
best-@@
possi@@
terrestres
Golfe
random
elect
séparée
fulfill
lucky
DEL@@
contam@@
J.@@
débu@@
souffrant
centaine
mandat@@
teries
sq@@
Pé@@
ulation
south-@@
mourir
imposée
Ran@@
diplomatie
Link
MB@@
déterminés
festi@@
emplacements
combustible
intimité
endrez
Parad@@
complété
souhaitant
EIB
resser
quants
durer
chips
orique
concurrentiels
habitu@@
democracies
impeccable
baths
embarrass@@
ander
slip
picked
représentations
bah@@
bav@@
répét@@
Hamilton
aple
shortage
cease
Saf@@
Dame
Lawrence
exotic
tues
phrases
behavi@@
butter
whis@@
DM@@
démontrent
Johnson
english
ctions
fusions
WW@@
Seul
-il
enders
Toyota
Guin@@
ancing
lated
Leader
gaining
Mountains
eder
consommer
dissoci@@
pod@@
Sep@@
alinéa
embo@@
Railway
pushing
prototype
-à-@@
95@@
budg@@
RST
gardi@@
compréhensible
Var
réfère
tranqu@@
Moroccan
immersion
Aug@@
laï@@
Adap@@
Sofia
problématiques
Fine
orthodo@@
exercé
avian
Nam@@
travail@@
Cohesion
installe
charité
FREE
counted
thématiques
complét@@
Newsletter
facult@@
diminue
ILE
rison
wood@@
incapables
Cambridge
Visitors
derons
masses
ativement
obtenue
H.
Head@@
renvoyer
déliv@@
endo
ecting
plante
refriger@@
typo@@
asis
ambitieuse
communiquez
bris@@
stables
subsection
joins
ourt
crow@@
yard
perd
fameuse
opera
désign@@
impliquent
dissemin@@
wash
beau@@
discriminatory
extern@@
construct
depos@@
poursuivent
beneficiaries
rival@@
1965
midnight
manifestants
incluse
liquides
stabili@@
occupés
suivies
recognises
sages
weaknesses
falsi@@
190
traditionally
floods
inherent
illement
Along
contrô@@
46@@
Chinois
renvoy@@
réglages
ologists
plantations
entrepreneur
Os
wet
SON@@
philosop@@
gated
cherché
resist
raffiné
Exclu@@
ни@@
Applications
raffinée
threaten
anony@@
dressing
abat@@
Р@@
AAS
sky@@
primé
Early
surve@@
Dat@@
sixth
tins
-and-@@
Panasonic
vidé@@
col
Pou@@
caractér@@
density
oncé
slot
37@@
inex@@
prétend
exige@@
polices
Fan@@
servants
Juli@@
cellar
triangle
momentum
consulté
Machine
issuing
holy
cky
excessi@@
-tu
ël
améliorant
extra-@@
Made
Phar@@
rapproch@@
attray@@
ultérieure
Knowledge
teen@@
itez
Alzheimer
ant-@@
Assistant
Hydro@@
Gouvernement
ghter
inos
Wher@@
dealers
anten@@
perfectionnement
défend
opérationnels
midst
uni
delight
atro@@
manually
exécuté
elt
Hum@@
HI
nationality
Fortunately
.html
technically
Pent@@
désignation
4000
Protocole
ffer
mill
Es
horizons
emporter
impul@@
Astrium
Andrew
wonder@@
Anton@@
mexic@@
8th
sondages
traitent
DS@@
disciplinaire
broke
Rotterdam
irrigation
commémor@@
main-d
portions
cooling
rivières
Instruments
quantit@@
abouti
corresponds
custody
agen
Aide
jack
dénoncer
splend@@
vic
Compar@@
rab@@
seau
predictable
conflic@@
Race
illée
Reu@@
prévoyant
accordent
graphy
contrefaçon
DL@@
Qatar
négocié
NGO
confier
Greater
solu@@
Quite
attracted
IND
sud-est
excep@@
chauds
pensées
TT
sous-jac@@
dresser
cote
STE@@
rat@@
réussie
constituera
debut
eves
identifiés
versa
respectueux
mom@@
piét@@
forecast
siers
-09
shapes
lag
bij@@
fia
locks
problematic
polici@@
approfondi
appellent
Taking
Ny@@
Bav@@
Sud-@@
wash@@
contrôlé
encouragé
Aviation
Laz@@
demonstrating
eks
crazy
under-@@
Produits
intellig@@
gram@@
versés
liance
collo@@
fermée
Dakar
gic@@
hospitali@@
coc@@
favor
allocations
POUR
rapporte
oven
dirige@@
Professi@@
Crown
résid@@
Astu@@
Oil
Objective
visuel
concession
stimulating
cris
aucunement
inculp@@
layers
formelle
Model
competitions
nes@@
pharmaceutique
Olivier
arie
Emi@@
Déc@@
Vari@@
alco@@
inscri@@
dging
atténu@@
harv@@
hang
devote
Income
memb@@
z-nous
terroir
expecting
Econom@@
warned
suspend
relax@@
Provincial
alar@@
Jusqu
ld
news@@
SPA
impliqu@@
tale
délégu@@
immobilières
Lang@@
Diego
courriels
pine
formulée
oufl@@
то@@
viewer
Dic@@
disparités
transported
audaci@@
hormon@@
reaux
quotidiens
précisions
éria
saints
parfum
rez-de-chaussée
neighborhood
clips
fret
appropriately
Ecu@@
optim@@
gambling
blin@@
lifelong
shoot
galement
Fit@@
théâtres
nominations
passez
déjeuners
adressé
recipients
Faso
nig@@
dois-je
Beh@@
JO@@
16-@@
casts
préfé@@
beta
embedded
UR
conditionnelle
Racing
Raf@@
Automo@@
reç@@
habituel
mercure
Darfur
Agricultural
coloured
Pau@@
instable
estu@@
Bilbao
Castro
Blog
Cash
clientele
heav@@
flags
mentionnée
boot@@
probl@@
éralement
orer
Ressources
polio
trans-European
successes
need@@
AE
Rest@@
surrection
diplomacy
grey
varying
combat@@
insuffisant
dévoil@@
athers
ota
mixte
Almost
rewards
séqu@@
ISE
Apo@@
arer
dirty
Brig@@
migrant
punished
envoyez
interprètes
Yesterday
èque
zio
tiend@@
dédu@@
portraits
hair-dryer
650
eck
incroy@@
HOTEL
Def@@
poussée
insol@@
cast@@
stéré@@
provis@@
vives
reflex
kins
modernité
épaisseur
fully-@@
Alex@@
empêchent
lowers
exploitants
regulators
hostile
.fr
convicted
ève
voic@@
DB
administered
sequ@@
Dav@@
cement
promp@@
DB@@
ecu@@
la-@@
Public@@
impunité
Haye
Din@@
step@@
prétendre
harvest
Pati@@
spr@@
Hé@@
pêches
Industrie
onnements
Transfer
humidité
swim
MEN@@
2005-@@
prosecution
Speed
mour@@
Kremlin
do-@@
seating
financially
munitions
vez-vous
Labor@@
unauthorized
thly
ranks
Vallée
téléphoniques
Lomé
forecasts
financièrement
epidemic
intégralement
tr
pari
Chancellor
kne@@
Darfour
bilités
épau@@
Beauty
bron@@
designing
ètent
chio
acceptables
eno
MEDA
Simple
chair@@
solic@@
guiding
remor@@
soutenant
vaisseau
XXe
Communautés
offender
érieur
avéré
laiss@@
recreation
vil
μ@@
aptitude
audits
dépistage
prejudice
prec@@
eant
fidélité
Compu@@
du-@@
Euro-Mediterranean
Silver
elation
refrigerator
F.
réclame
rubber
affiliates
organs
T.
calculs
bétail
issu
pus
inequalities
Prof@@
dentaire
ush@@
Vérifiez
WS
pleas@@
acity
subissent
Establis@@
Vie
dedication
Posselt
asp@@
vian
entraînera
zip
Bath
Chang@@
encryption
abordables
démén@@
loud
biotechnology
persuade
comptable
stocker
carton
mesur@@
Mauri@@
Fire
emergence
Championship
chs
suffisants
ox
Proche
rations
3G
Mam@@
municipality
FF
eration
Swiss@@
technicians
fitting
économistes
berger
sacrifices
imbalances
signale
CB
captures
Independent
Victor
Corn@@
achèvement
augmentant
statutory
rables
Récemment
préparatifs
réuni
Publishing
CAS@@
worn
fierté
BBC
smallest
Contac@@
associate
fting
Prior
affor@@
bau@@
preparatory
convincing
11th
passera
Vul@@
portuaires
contraceptive
vain@@
adi
Companies
educ@@
coloni@@
chou@@
ny@@
120@@
pompe
émotion
Bonne
speculation
sobre
Tropez
pol
barely
taires
ego
BB
blow
rayon
découlent
Taylor
saluons
jur@@
mascul@@
implants
Millénaire
advocates
bords
saveur
stell@@
regulating
intra@@
happ@@
organisateurs
Latvia
envoyées
controller
th-century
literacy
renouveler
Egypte
affection
myth@@
désigner
illégales
téléphonie
Documentation
selec@@
entendons
recour@@
izes
occupational
dialogues
Summary
consecutive
C5-0@@
balle
spot@@
ICA
Bit@@
comporter
châteaux
bulk
çage
icons
découvrirez
ouvrent
œuv@@
voyageur
arena
Euratom
paniers
subsi@@
ruins
1980s
owe
was@@
tri
revol@@
restreindre
shorter
personnaliser
800@@
stresses
affich@@
intensity
véni@@
π@@
réclamer
tendent
ordin@@
Hugo
LateRooms
Good@@
effac@@
fically
opposants
refléter
combiné
renforçant
érité
forge
rises
ht@@
toll
forcer
atement
vraisemblablement
calculer
wai@@
injuste
agre@@
matched
tends
Ms.
GRC
predic@@
Accordingly
pity
séjourn@@
cellulaire
cz@@
BN@@
flexi@@
ting@@
3.2
therapeutic
iTunes
reusement
minuit
spati@@
alties
Aéroport
Kyriad
Pre-@@
habituelle
habitats
sim@@
duo
ority
lectures
Seconde
adhere
traveling
présum@@
ramp@@
LT@@
retraités
hub
déséquilibres
rantes
Informatique
gon
endu@@
irrégularités
Fair@@
Angel
issaient
destruc@@
toxic@@
sois
satu@@
précis@@
shipped
aic
entine
Nicaragua
catalogues
Starting
1900
high-level
allou@@
e-t-elle
deront
understands
evid@@
péché
ATIONS
occasionally
Likewise
2,000
entrepr@@
Bibliothèque
Poli@@
dég@@
feeds
basin
turé
voor
Jeunesse
announces
verdure
Won@@
dock
asive
Homme
Dy@@
São
iranien
Extrait
adju@@
Monitoring
Um@@
itables
geo@@
VTT
céder
aboutiss@@
Guar@@
littoral
Prec@@
indicateur
Gag@@
ld@@
expl@@
Parisian
subscri@@
affair
costumes
laitiers
ward@@
internautes
ruines
grand-@@
filing
conceptions
repe@@
lisez
extraits
neront
voler
comport@@
affectation
Rég@@
visée
cost-@@
Hamburg
lization
amend@@
Flori@@
tissement
endettement
Ethiopia
allegations
etch
Presid@@
revendications
merie
versée
visé
rude
peut-elle
hongrois
doses
True
genic
civilisations
électoral
tub
OUR
uncertain
capita
péd@@
matching
Produc@@
devastating
rolled
seri@@
understandable
rider
Shoe
dissemination
professionalism
moindres
organ
content@@
rh@@
Cardiff
inscriptions
ensole@@
system@@
built-in
merit
voterons
ensu@@
èdent
Hen@@
truck
incluses
ting-@@
partag@@
ances@@
stoc@@
gast@@
rénovées
erre@@
affirment
pessimis@@
belt
Wine
UV
r.@@
organizational
wick
forestière
calyp@@
Guinée
nominated
inégal@@
umb@@
O.@@
socio@@
cacher
favorisent
echo
adressées
préfèrent
viers
appelant
Scottish
fabriqué
Thi@@
préalablement
lex
émo@@
adhér@@
1964
éco@@
craindre
TRE@@
identifies
nettoyer
Tch@@
legi@@
Hai@@
chon
bass
patin@@
onie
Chin@@
06@@
Oce@@
educated
governmental
generates
oeuv@@
recueillies
aidant
Military
Fried@@
Inuit
Concer@@
contrôleur
mortality
mountain@@
Born
CCD
linen
Sco@@
Relais
ologist
interpréter
proprietary
entrusted
douanes
Are@@
symbo@@
bli
NO
pente
Lem@@
year-@@
Tag@@
pénurie
oa
theatres
Quel@@
pardon
libéré
sains
l`@@
chapters
life-@@
accurately
enrichir
néo@@
sourire
Too
évolue
CD-@@
tempo@@
ranking
harsh
ramener
regi@@
perçu
télé
bulletins
patho@@
Chirac
munis
Gh@@
affectées
sands
bottles
awesome
Annan
maïs
pione@@
recueill@@
risqu@@
fumer
supprimé
IRC
Returns
pous@@
indiquées
Terra@@
iteurs
alers
bans
dict
magical
orches@@
annulé
mechan@@
cale
Di
Rac@@
VIL@@
provinciale
advers@@
Singapour
obsol@@
bord@@
evolving
pump
prevail
metro@@
Elis@@
Ten
scro@@
internally
jurisdictions
photographer
québécois
Day@@
modifiant
planes
judged
``@@
positioned
deliberately
examinons
impunity
musicales
sect@@
accordés
cruel
Bonn
cot
Gatineau
Agri@@
créative
aia
parental
inquiries
fraudul@@
Fichier
ρ@@
175
bovine
buff@@
congress
hard-@@
BIL@@
poorer
lum
tration
tueux
unanime
verrou@@
Lire
commissioned
Red@@
Jus@@
traçabilité
Jose@@
acide
1948
outlook
étudie
compliqué
passionnés
pretext
idéologie
template
neaux
contraints
Kou@@
sehr
oreilles
libérale
ц@@
vend
hormones
123
durement
intri@@
réc@@
six-@@
reposent
W3C
Dark
meurs
xes
drait
bati@@
demandeur
Auberge
108
toirs
austérité
Purch@@
réputé
GMOs
finger
Mos@@
theater
ratifier
arriva
Utilis@@
stimulation
rical
Allaah
omni@@
Tech@@
tionary
Art@@
F1
SAP
K-@@
zers
Mass
Card@@
dale
slight
emper@@
Alt@@
circuler
gloire
priests
Generally
corrected
éradication
Générale
ticism
calcium
ebook
proceeding
rembourser
Montmartre
mild
Bosnie
ignon
tages
affectent
suspicion
gentle
self-employed
manoeuvre
tom
H.@@
Inform@@
Alpine
Ds
Evans
ELDR
crowd
acle
qualifier
vez
opérationnelles
Stock
TW@@
browsing
noté
adv@@
seller
kun@@
dent@@
câbl@@
anom@@
Give
singing
publicitaire
positively
Senate
Monte@@
Rig@@
agan
jeté
harmonise
côtières
SEN@@
Run@@
réhabilitation
mins
demandée
subur@@
présidentielle
paire
Goth@@
beh@@
declar@@
souffert
acher
school@@
chantiers
Bulgarian
newest
diligence
Rossi
contaminated
vê@@
valorisation
rigoureuse
as-tu
U-@@
Sci@@
failures
curseur
médiation
Pun@@
Movement
Giovanni
commencement
unite
bombard@@
Well@@
gham
196
differ@@
acking
104
Mart@@
NP@@
Want
intim@@
Us
fraction
contribuant
fou
commençant
débute
mier
hat@@
san
tackled
parquet
ferences
profess@@
choisit
ATI@@
Labrador
recipe
affiliation
intérimaire
Chrysler
mutu@@
pénétrer
expan@@
cade
excédent
Jim
mobilières
indien
aucuns
mutually
érie
expec@@
emia
kidn@@
Terminal
repercussions
Celles-ci
bier
lyrics
atisation
adhé@@
dizaine
escl@@
agira
Train
witnesses
périphérie
mana
Pyrénées
Bruno
clou@@
crates
eue
réussi@@
significatifs
réfugi@@
incorporation
Ethernet
Deb@@
vaisselle
alogue
transeuropéens
liquidity
Map
désarmement
liaisons
situent
trusted
évalué
extinction
Montenegro
ellerie
allie
api@@
itas
capitales
éleveurs
Membres
compensate
1956
dissimul@@
déterminées
preview
Idéalement
Heathrow
Relax
OP
Estonie
hen
TVD
lici@@
travailleur
Mozambique
popularité
spirituelle
appeals
vivi@@
iraki@@
Ђ
revê@@
irrespective
minimiser
world-@@
merveilleuse
onia
charging
Flem@@
baptis@@
imply
Carmen
bant
végétation
Invest@@
erre
Mann
chip
transitoire
rally
PM@@
Veg@@
fossil
Tandis
prospective
glasses
généré
paie
accident@@
Picard
contenue
Making
docteur
t-on
TL
devint
envelop@@
Electric
IFRS
bear@@
Turn
élabor@@
riel
Reser@@
rupt
judiciary
experiments
miel
anthropo@@
seasons
2050
Others
drag
Palazzo
investor
Programs
Ouv@@
lements
Kr@@
glory
hebdomadaire
Communi@@
rattra@@
Agent
éraux
éments
wins
ciblée
Certainly
tsch@@
tariffs
cup@@
bananes
1200
ordonné
sectoral
detainees
serial
renew
entourée
scri@@
alarme
développent
mation
halls
funny
Environ
communicated
seam@@
viser
forest@@
appropri@@
alo
scann@@
GC
érieurs
fossiles
architectes
bration
scrip@@
vacuum
dare
102
astu@@
accélération
Join
acides
manuels
enth
lease
abolished
discovering
actress
assisting
wheels
celebrating
hearings
Hil@@
illustrate
relâ@@
fictifs
GES
intégrant
rooted
affichée
Progress
tuna
tary
depic@@
entou@@
Sector
ravie
Somalia
Send
politan
Hat@@
Williams
disrup@@
Vieux
Uti@@
ear
éducatifs
day-to-day
méthodologie
creations
bordure
Recent
Seven
laver
mic@@
prescriptions
moratoire
stretch
economical
signés
0.1
Promenade
Ideally
honor
cake
shores
territoriales
chronique
Bun@@
cireur
curieux
étoile
sal
édie
israélienne
firm@@
comprising
foodstuffs
protocols
Prac@@
MEP
aer@@
smen
épidémi@@
neo-@@
subsidiaries
Registration
salaries
hésit@@
autoroutes
5.1
achar@@
recevra
horizon@@
accordées
climbing
plaisirs
istant
applau@@
cienne
épanou@@
constat
gni@@
tude
appuyez
room@@
beliefs
Rivi@@
olf
VIS
depl@@
reminds
alloués
Dj@@
olympique
bleue
oreille
Sah@@
ège
chimie
awaits
ronde
Cambodge
rions-nous
cluster
Arrival
zaine
Kelly
Expert
&apos;un
chrétien
êtes-vous
bec
navigateurs
orities
Yo@@
démantèlement
sourcing
Liberals
arisation
borro@@
itary
Ambassador
conformity
Mitchell
EX
bizarre
parvenue
mits
collectively
monitors
lowering
Laf@@
ambass@@
Kurdish
globales
opèrent
biofuels
évê@@
Honduras
defenders
Lex@@
recette
ètres
gardant
seal
esis
imposant
Sénégal
Lib@@
cong@@
winds
commend
tissue
theoretical
collectifs
TOR@@
entails
yan
péninsule
accompagn@@
catalog
détaillants
marines
respectives
spectaculaires
temples
blanchiment
Tool@@
Atlas
représentante
inévitablement
Propri@@
isement
cultivation
catal@@
INI
kland
NH@@
aba@@
smell
englobe
fabul@@
apportant
précieuses
tionnés
short-@@
justifié
Ale@@
deplo@@
rendered
them@@
Nichol@@
Alexand@@
Kevin
accelerate
annuelles
multilingual
manifesté
α
Résidence
édifices
Région
condens@@
violated
IU@@
230
Strategic
Peru
veri@@
harcèlement
peser
obtenez
achevé
behold
agra
istiques
recueillis
parall@@
ffici@@
homo@@
Exam@@
enchanting
critici@@
apprenti@@
cked
criminelles
Chil@@
precautionary
autonomes
Assurance
hardt
Voyag@@
dominance
tiveness
toir
democratically
standardis@@
scandale
Holland
efully
Later
phy@@
exo@@
préparée
Nobody
priest
itera
grimp@@
chanteur
Bénéfici@@
Has@@
Coll@@
incidences
rig@@
outermost
outlets
ideology
wron@@
ę@@
béton
Info
apportés
protectionnisme
2009-2010
découra@@
aimable
esprits
enregistre
surcroît
emotions
Task
SLR
Crus@@
DEM
chèques
Arrivée
interpret
wholly
Gér@@
kingdom
procède
littéra@@
Alicante
pâte
theft
réviser
alias
pneus
sine
ring@@
animales
Solution
κ@@
émises
fonctionnelle
shelter
jonction
Rich@@
worlds
il-@@
mankind
strongest
catég@@
mépris
inconvénients
bail
acquitter
disadvantage
gates
Liter@@
lente
assemblage
Fredericton
visées
armement
réagi
irons
moratorium
confused
obtenues
parisi@@
gab@@
méridi@@
irregularities
march
Wales
ße
coordin@@
RCMP
nég@@
ment-@@
dГ
prêtres
offerings
Console
nightlife
puits
Gender
accomplissement
contacted
adapting
ules
Outdoor
bikes
refu@@
deven@@
illed
Cle@@
1957
frau@@
empreintes
out-@@
enshrined
lifts
Sanc@@
eters
isseurs
Thessal@@
Lenovo
désirs
paration
neufs
Chu@@
zza
interpre@@
sévère
Diff@@
quot@@
radicale
icon@@
Lind@@
exported
niture
Dominique
govern
Ax@@
grows
0.5
alarming
Qui@@
interroger
rassemble
centen@@
assurez-vous
137
dépensé
sat@@
ja@@
Kö@@
tasting
Babysitting
entraînent
subway
erial
Observatoire
haz@@
max@@
Status
Kom@@
cozy
sm
outbreak
humane
bactéries
tum@@
vau@@
grille
Nam
veillant
Abraham
trigger
tranquil
interrompue
naï@@
ultrapériphériques
refreshing
edit@@
commemor@@
approaching
évitant
scrutin
Heid@@
sûres
déblo@@
tress
Iz@@
azz@@
hôte@@
Cycl@@
poulet
baiser
anto
cris@@
block@@
sanctu@@
egg
CM
upgraded
fill@@
communist
anonymous
captiv@@
chê@@
popularity
excessif
inférieurs
tonne
simultan@@
porteurs
medium-@@
tment
uc@@
bilatérales
monsieur
teenth
dell
impossibilité
man-@@
deprived
SilverFast
tongue
Augus@@
thetic
terial
Branch
crystal
awaiting
ley@@
réglé
bench@@
negoti@@
jambes
dieu
équivoque
poli@@
éoli@@
marina
intégrale
néerlandaise
insecurity
itinéraires
bor
superfici@@
variée
executions
Florida
Enregist@@
65@@
ologues
champagne
fragr@@
paramil@@
50-@@
Pack@@
smile
Miguel
gregation
méditerranéens
allowance
introduites
esque
vestiges
vions
topical
Champion
escent
Au-delà
Max@@
ROM
Aj@@
ž@@
explaining
ICC
Bob@@
commenter
exercised
locating
ungen
parad@@
livrés
Kaz@@
Ibis
opér@@
ajoutés
Mün@@
oute
literary
dépassent
ajoutent
prerequisite
piè@@
enthusiastic
conseille
res-@@
compiler
excav@@
uto
soumission
shirts
postponed
comprenons
appe@@
voulions
mutuel
Massage
hospit@@
bien-@@
oriques
Arch@@
Pedro
help@@
geared
intermedi@@
toral
lations
ities
remplit
lacks
bla@@
éventualité
originaires
immune
decreased
enger
SL@@
franchir
gun
quelques-unes
stroke
devrais
incite
acked
réci@@
apost@@
cruise
abro@@
Complete
cabinets
érons
sudden
A1
divisé
Iceland
Cruz
commodities
authenti@@
64@@
gal
barrière
retar@@
Prices
liquidités
inscrites
ordering
interfere
naître
protectionism
wich
championnat
rÃ
copy@@
arité
successive
amende
ASEAN
Wide
sind
authenticité
revi@@
NA
youn@@
Produ@@
ror
applic@@
régn@@
coat
accusés
chaî@@
influenc@@
Kil@@
flora
Menu
strengths
vier
créateur
mants
Winnipeg
aster@@
scénarios
désastre
radioactive
amont
Captain
maturité
rhetoric
harassment
iten
cker
Bristol
Stars
volontairement
IDA
alty
tray
portation
Math@@
Olympus
botan@@
anth@@
souviens
Mark@@
Messi@@
tex
deterioration
Sauf
Ankara
Week
minimize
Gardens
Malaysia
cole
colourful
examinée
aper
utilitaire
DivX
literie
adas
entiers
gul@@
disclosed
marqués
BP
Mondiale
victori@@
tit
construits
anny
columns
Satur@@
titu@@
Ecofin
oirs
étou@@
dex
officiers
podium
Kit
contracting
trons
Portage
magn@@
interrog@@
WordPress
dépendra
Distribution
AUX
adminis@@
hectare
nose
Cho@@
flour@@
tant@@
propagande
brown
anian
Alg@@
determines
maqu@@
loisir
Nuclear
cri
modulation
dozens
masque
criminel
réclamation
tem
distorsion
Grou@@
extraordinaires
Xi@@
tirées
Ayant
corpor@@
sez-moi
généreux
aper@@
Connec@@
remarqu@@
contractors
axé
wildlife
quitte
zar@@
abandonné
guichet
contraint
evaluating
chains
fédérales
améliorent
attendue
Lorenzo
sociaux-démocrates
soccer
Forex
Soundproofed
chal@@
Style
changent
étab@@
mixing
aval
5.00
Ferr@@
tradi@@
exterior
trucks
hair@@
jump
weekends
isses
paper@@
train@@
distinc@@
jau@@
Fix@@
full@@
DF
TL@@
emps
Original
e-based
Brian
cogni@@
porte-parole
ular
Rand@@
GIMP
elabor@@
Contrac@@
aba
envis@@
exclusifs
sperme
Salzburg
ceilings
descend@@
introduite
drum
Boulevard
rocks
neck
sensor
réuss@@
MAC
uplo@@
litiges
librai@@
GNOME
minus@@
retraites
dece@@
auch
Ins@@
Beyond
Iron
entendent
dres
tely
imper@@
légaux
Always
plafonds
marty@@
oce@@
Bundes@@
départements
targeting
îtra
t.com
PHARE
Catalunya
échantillon
qualifying
élar@@
Feli@@
1963
peripheral
maîtr@@
anticipate
Neuro@@
Origin@@
McGill
Autor@@
saisi
révèlent
riders
ives
COR@@
fermés
tino
portez
inégalité
Fou@@
planétaire
versées
alcool@@
référer
etes
inserted
xe
intellectu@@
péni@@
F.@@
resteront
spirituel
biotechn@@
bénéficiaire
transmise
consacrées
espresso
advisor
dioxyde
afi
speeds
pê@@
retreat
orie
gorge
Ajouter
pit
abrit@@
drome
sud-@@
skis
accélé@@
Seule
tionnellement
ûte
recouv@@
décentr@@
Institutions
ra-@@
sich
affiliated
entrez
ather
réparations
reviewing
Smart@@
Alex
ità
confronted
souscrire
préci@@
œufs
dynamics
forestiers
Construit
architects
oud
Avignon
Fres@@
pastoral
solvabilité
bank@@
NU@@
envoy@@
inc.
Javascript
Sty@@
prac@@
technolo@@
ingue
philosophi@@
recherché
Brava
achever
Ya@@
cached
constructeur
bais@@
1966
œur
corro@@
rehaus@@
SAS
Administra@@
schi@@
reiter@@
tén@@
meurent
atteignent
orientée
Reding
opposent
échecs
ва@@
basque
clip@@
EOS
jan@@
compromettre
hand-@@
emblée
preci@@
disposée
verrons
Biélorussie
procureur
remet
fairness
compli@@
Vor@@
scanning
manches
regener@@
bills
Champi@@
énoncés
investigated
FE
photographe
maternité
teaux
plaign@@
décev@@
aptitudes
incoming
pizz@@
Gru@@
pipes
kan@@
travelers
VM
usages
Bak@@
minded
None
Lettonie
us-@@
XVI
justifiée
Juin
indicator
balances
Enti@@
discounts
jew@@
rd
Enf@@
2ème
ambassade
machin@@
manquez
socket
PNR
arché@@
remplie
analyze
ke-up
Scrip@@
Dialogue
turnover
EO
HC
versements
77@@
enchères
assassin@@
uit@@
basket
fit@@
décrits
défavorisées
bak@@
ud
simpler
assainissement
disappointing
pilotage
tees
mercury
vivante
Mt
litige
prolongée
apprend
conservative
couvertes
Perfect
bris
ira@@
describing
gérée
friendship
dark@@
earliest
fathers
opter
absten@@
Marché
Radisson
etal
requièrent
Roi
Minis@@
austerity
amoun@@
icy
defects
design@@
constra@@
fis@@
adel@@
suspens
pleu@@
Malaga
ridicule
postu@@
bombe
Mom@@
musi@@
erions
desires
ériques
100,000
stainless
touch@@
balancing
Marti@@
BT
Conven@@
pluies
Enter@@
succur@@
Ware
Ox@@
Calend@@
Gom@@
Luxury
balls
tibles
indem@@
Whit@@
appliances
cleaner
Chron@@
seu@@
résolue
aveu@@
Wallström
cellule
envisagé
booth
quets
divid@@
achetés
Caucase
Uganda
Around
privilégi@@
Chec@@
idad
chauffée
voulaient
gour@@
Americas
prolong@@
economists
Educ@@
Lui
nut
gasp@@
THIS
renouvel@@
sacra@@
collabore
econom@@
letting
Kol@@
sex@@
PD
83@@
Tool
ius
nest@@
crivez
décident
fli@@
fraudes
vegetation
detriment
renom@@
cigarette
Médiateur
classés
Death
م@@
hits
Part@@
arbo@@
moment-là
adress@@
auv@@
Rho@@
reads
mathématiques
asseoir
malnutrition
cables
profitability
préjudici@@
ctu@@
oné@@
cum
Cohn-Bendit
Capitale
relaxer
diamètre
CGI
décro@@
patern@@
Sz@@
imminent
intensification
Explo@@
démographiques
dorénavant
confront
breath
sill@@
Gate
deuxièmement
flou@@
rationnelle
détenteurs
White@@
Satellite
Conseils
localité
Concours
full-time
déçu
Lieutenant
fournissons
ш@@
ISA
males
aisé
vendeurs
personnalisées
coin@@
acou@@
dommag@@
Retrouvez
Yamaha
glisser
prosp@@
pèse
Paulo
pragmatic
-là
résidus
highlighting
simplicity
Corps
sserie
260
apport@@
extrémistes
lical
acul@@
élaborée
correspondence
Sn@@
stag@@
LabVIEW
ensive
Eurojust
PayPal
protections
antage
Pay
détéri@@
solenn@@
Roy
portait
thwest
avou@@
MSN
lios
geon
directive-cadre
sis@@
effectuent
aline
primi@@
Register
affirm
cosmo@@
anol
Luis
administrators
Nik@@
itons
anus
livraisons
engineer
fonci@@
PK@@
manqué
ored
Return
Contin@@
bienfaits
missile
remark
pt
débarrasser
vesti@@
postaux
org@@
possé@@
ны@@
rug@@
trist@@
imprimés
oh@@
Taliban
Arafat
DÉ@@
aménagé
particul@@
élargi
réalisme
CITES
survenus
agna
passe-@@
radicalement
microphone
handic@@
èques
Francfort
LIM@@
affér@@
icônes
flavour
efficience
shut@@
ensen
nu
phenomena
dilu@@
verdict
violents
raf
Leon@@
ghts
soutiend@@
facilitation
diameter
compile
Euro-@@
fois-ci
conviendrait
trage@@
2008-2009
constituency
Hot
testimony
7-0@@
child@@
ño
volant
sympathie
Corbett
cuivre
défendu
courtesy
Economy
stricter
mélang@@
PAC@@
720
-on
dozen
additionnels
Founded
versatile
imprenable
evolved
bei
amaz@@
mandats
coopératives
bedding
1958
rapport@@
poorly
implan@@
Flu@@
ophones
aspiration
drame
otypes
désignés
barres
domine
Déclarations
Valence
Pier@@
présentement
cherchant
aéronautique
Pacte
bureaucratique
décrite
anza
handy
ambiguous
aesthetic
innovants
ody
moire
Reports
Caucasus
normales
sélectionn@@
taxable
niche
Gig@@
Quad@@
Promotion
shop@@
avier
alpine
erable
uphold
usion
schéma
déch@@
state-@@
precedent
Fif@@
carbon@@
helicopter
regroupement
job@@
tirés
lengthy
abo
collision
exceeded
pandémie
distribués
foreseen
Individuals
bénéficiez
scenarios
hés@@
évité
som
yo
entrep@@
encourageons
limin@@
third-party
enthousi@@
fashionable
Telecom
romaine
poudre
solidaire
écarts
vet
15.@@
aimer
porteur
burdens
Bene@@
rejetée
olution
encre
robu@@
OCLC
secular
ît
privative
altered
Ner@@
meu@@
syndrome
Particip@@
judici@@
Luk@@
outlines
Stratégie
Septembre
Packed
scor@@
Mondial
étiez
drama
illegally
tura
rines
्
produise
ITI@@
Aung
sache
industrialisés
16.@@
clarified
tes-@@
Highway
lish
rival
mecs
Contro@@
complied
outer
durs
steady
impartial
conç@@
crus@@
third-country
Evaluation
prohibition
denial
aired
expatri@@
pis@@
tutori@@
hurt
Enh@@
Boy@@
Notre-Dame
logici@@
emo@@
coer@@
eded
inacceptables
cf.
loger
antérieures
stagnation
loyalty
liberalization
adou@@
bomb
Bug@@
entoure
raconte
opéra
préconise
licenses
accus@@
AO
administr@@
Croix
salvation
Dro@@
Champagne
chirurgie
writes
fraîcheur
menacés
Daily
mean@@
44@@
fermeté
fatal
cereals
dÃ
harmonious
bijoux
férences
во@@
confié
Termin@@
donnons
forteresse
boss
déplor@@
Riad
ль@@
Overall
psycho@@
étroites
animated
Some@@
rai@@
145
Camping
rangs
sers
estone
contraires
peer
Canaries
mask
bienfaisance
fifty
Isab@@
amento
deaux
meubl@@
guardian
dancing
arch
rene@@
intr@@
onnet
minors
Ama@@
transparentes
worship
ANA
remises
néfastes
sax@@
goti@@
sidé@@
fall@@
noy@@
ignes
Remarque
parliamentarians
abstra@@
engendre
rire
préalables
node
vif
SEL@@
regain
communistes
diplômés
Caf@@
gust@@
féminin
Petite
adol@@
scandal
destin@@
polluants
acht
backdrop
learnt
adjoint
clique
faculté
atories
defended
Pascal
Elysées
altogether
colog@@
vaccines
autrui
Tig@@
PN
ove
moderniser
c.
exclusivité
correspondants
délivrance
seaf@@
commerçants
Honourable
fted
senses
armé
sins
Guil@@
beverages
reconnaissons
Seville
lick
Student
préférez
Embassy
Uruguay
écr@@
photo@@
210
1962
arc
calculations
alin
domains
yu@@
neig@@
IME
relié
volon@@
illing
Cross@@
comparé
structu@@
instrumental
manuellement
gourman@@
plancher
BMW
nostal@@
prospère
raci@@
Assu@@
seas@@
exercée
postale
SUR
Nairobi
passions
Temp@@
Thé@@
reportedly
délits
épreuves
Tot@@
fondament@@
relev@@
A5-00@@
performant
Burg@@
chest@@
élector@@
devenues
ice@@
counseling
indemnités
préoccupés
SERVI@@
decreas@@
inoubliables
accompag@@
rempl@@
profité
Workers
Sli@@
professor
forefront
favoris@@
coastline
croisière
Disk
pakistan@@
Coordin@@
loyal
éché@@
monst@@
Fox
plomb
Hyper@@
féminine
fiches
ik
Starfleet
comitologie
Jarzembowski
Quatrièmement
AGE
cardiovas@@
collap@@
expects
pub@@
originalité
mènera
aver
catholiques
stylis@@
Put
Nin@@
Matthe@@
serviettes
espagnols
prolifération
transferring
arisme
DR
pirates
immenses
Sit@@
Islande
eternal
280
anch@@
pist@@
ption
AFP
avia
projet@@
susmenti@@
hang@@
destroying
doive
yi@@
extraordin@@
modifie
endeav@@
County
formellement
biotechnologie
concev@@
ressor@@
simo
ylon
appointments
nommer
travers@@
attributes
thal@@
commandé
persév@@
demandés
Jour
curious
warmth
Excellence
optimistic
infra@@
sting
assumes
cherch@@
dar
PCI
cuisini@@
canapé
Photos
gles
lush
tardive
enthusiasts
grammes
TCP
envelopp@@
Analysis
exceeds
forfaits
Gui@@
menson@@
Leu@@
swap
etz@@
maximize
loves
corners
distincts
Operations
commodités
stuck
défectu@@
Catho@@
big@@
austr@@
на
beaten
2.6
streams
demption
complain
èves
hysi@@
médiévale
incorporating
inability
fast@@
oriquement
Khan
Somalie
Quartet
suisses
cry
tless
attribute
wheat
remit
Kyi
unir
flavours
aggraver
Sak@@
Las@@
élaborés
quarante
tranche
showers
formateurs
contem@@
détenu
PCs
attributed
manship
TPS
Senegal
informel
600@@
ologically
Kau@@
herbes
good@@
ellow
exist@@
ousness
merits
Bob
renvoie
rectification
plastiques
apes
py
Blan@@
Moyen
Bois
ele@@
oric
révis@@
optimize
ministéri@@
incomplete
Laun@@
thèque
litre
Utiliser
stamp@@
ported
Ã@@
légalité
ministerial
temporairement
arrang@@
iP@@
physically
bourne
Ard@@
first-class
math
pétro@@
meg@@
opposing
Vers
eira
Unique
interp@@
interrupted
Guaran@@
counterparts
positionnement
leverage
Janeiro
fo
appalling
det
désireux
alin@@
séquence
èche
Ouvert
Drug
Zap@@
endues
spécifier
Avis
irresponsible
fruitful
hu
Planet
pluriannuel
gentillesse
trésors
awar@@
Mozart
VII
boîtier
importés
enseigner
Deleg@@
Poverty
1920
Abbas
forestier
Domin@@
comprised
horrible
username
in-house
nies
averti
jard@@
Gothic
calculate
foreigners
productif
commerç@@
ule
KL@@
Cabinet
reproduce
benefited
pilgri@@
Gilles
érale
Dance
suit@@
refrain
assassinat
repairs
Europ@@
endue
coupon
réexamen
zona
Yor@@
Nan@@
Brothers
capsu@@
empêché
banana
flation
anning
dial@@
attendance
topo@@
Cuisine
Socrates
creature
Bicycle
Sax@@
plas@@
subtle
ajustements
itsu
reront
warn
obliger
ś@@
success@@
traders
utilisations
caractérisée
pad
metre
direct-@@
laundering
amie
WD
reproduced
unclear
rapp@@
prolongation
artisanat
ANCE
ingénieur
75@@
suffis@@
erto
rol@@
populated
préf@@
non-respect
tter
particles
nordique
sucer
mystéri@@
décoré
housed
espi@@
EEC
tirage
cost-effective
interactif
usin@@
accomod@@
refusent
confisc@@
UNAIDS
policière
dépens
éradiquer
oso
Piet@@
obstruc@@
scanners
dives
unve@@
ajuster
STA@@
Réserve
lab
perpetu@@
téléviseur
chalets
mutation
lear@@
ASS
Pes@@
Dragon
suspi@@
réper@@
ν@@
rГ
banc@@
propaganda
stopping
sortant
croix
distributor
etary
fertile
Print
Globalisation
planted
Eden
Consid@@
andes
statuts
félicitons
diffusé
câbles
déloc@@
Was
acker
RÉ@@
facettes
Supéri@@
nommés
frontaliers
awi
employs
Quark
placez
photograph
stron@@
rigid
clear@@
Ei@@
MES
PLA@@
Dead
Formation
Sis@@
degra@@
paludisme
cé
prosperous
René
recouvrement
contente
NI@@
spra@@
desserts
inauguration
laboratories
championship
psychologique
intermediate
recourse
Suu
capteur
Ras@@
λ@@
VER
Moon
anisme
noires
Elizabeth
Privil@@
repository
stolen
24-@@
Arthur
Hitler
eye@@
env@@
authori@@
Sign
destined
slideshows
disappointment
souches
comptons
INT
1959
tiste
Souvent
francs
climatisé
hof@@
Glasgow
maturity
fumée
depar@@
resolu@@
seg@@
trib@@
suspendue
spéculation
CRM
dedans
confined
amo@@
caractérisé
ITÉ
magni@@
admiration
4.1
pâtis@@
approx
iso@@
somebody
fast-@@
sud-ouest
flash@@
neutre
broker
Sle@@
sail@@
carav@@
Carri@@
ä
Liikanen
Lad@@
PAR
Scot@@
Ble@@
Serbian
congestion
YOUR
littéralement
displaying
lune
25-@@
Antibes
Christ@@
relati@@
habit
SOL@@
Law@@
guestrooms
valor@@
Cs
Jour@@
grève
somehow
evol@@
musulman
chocol@@
chois@@
facturé
trium@@
Octobre
appreci@@
teuse
Berne
worthwhile
paradig@@
mission@@
cutan@@
recherchent
Michelin
Cele@@
bed@@
charitable
mu
traducteurs
Déjà
bow@@
draw@@
promul@@
illustrated
eon
offici@@
Arabic
transformations
occupant
browsers
Maître
adaptations
Sud-Est
garçon
Scre@@
semblerait
thou
inspirer

reçue
tech@@
upgrading
compatri@@
Certificate
osa
ال@@
implied
confrontées
SCC
illez
établis@@
Libre
criticisms
conform@@
ième
energy-@@
conv@@
Inf@@
structurel
eton
réduites
Touch
mout@@
Ponti@@
Bains
smoothly
douanière
aussitôt
coopérative
ariat
perdent
effec@@
69@@
Payment
ege
Transports
instin@@
perfu@@
Joh@@
Cool@@
ause
TACIS
empl@@
mensuel
121
Process@@
évite
réveil
Membership
106
prote@@
Jak@@
neighbour
ás
metals
haut-@@
No.
Á@@
Nepal
montr@@
prince
peu@@
Cut
Terro@@
profit@@
Lulu
clef
Iv@@
Friends
publicités
devis
illustrates
eman@@
BEL@@
clinic
douard
hav@@
nutritional
Française
cus@@
fired
maires
fashi@@
affichent
mt
spouse
fondés
tez-vous
aids
ratings
institute
DVDs
stimulant
hatred
restoring
Canadiennes
Israéliens
º
tised
eg
pixel
eses
Répon@@
Cinq
eag@@
rides
perpetrators
1961
abusive
encia
exert
Former
Harry
fémin@@
factories
souffrir
It@@
savou@@
Der
Vladimir
belong@@
digits
Netscape
Jn
onel
initiation
Sici@@
environment@@
BY
occupée
graph
ventil@@
ditions
abide
Eucharist
loose
contrepartie
Chan@@
autorisations
entendus
footing
contro@@
infos
graines
achiev@@
Juste
Phone
Jeu
Pérou
Magni@@
suggérer
Stock@@
lour@@
anni
stig@@
UT@@
paste
Liberties
peront
alisent
vency
âteaux
duplication
Panor@@
Roman@@
unk
muscle
Bonjour
coffre
allo
xénophobie
projected
enfonc@@
rails
translators
poultry
consumed
look@@
fanta@@
Wars
guit@@
emble
Boli@@
marges
Alexandre
confirmée
acs
consentis
affaibli@@
rhythm
imprisoned
Monténégro
knowledg@@
Gates
Gur@@
illusions
leau
intol@@
Sour@@
usable
Customers
disparities
marquage
génétiques
embrace
auspices
Commit@@
romain
représentée
assumption
orandum
honoured
agression
estic
ophi@@
direct@@
nouveauté
paysans
glaci@@
frameworks
consuming
Peri@@
challenged
Observ@@
strations
DANS
jugés
relies
Balkan
MER@@
probabilité
Urban
ectu@@
arre
Ris@@
138
Kel@@
paro@@
CSC
témoign@@
Resource
Athènes
vérifiez
milles
Kiev
lady
treats
prospec@@
infil@@
Game@@
Vitorino
exigeants
PESC
Conf@@
Quelque
ough
underlined
Release
reconnais
poussière
performs
assistons
enzy@@
ICEcat
lifted
exercising
South-@@
ept
circles
honey
mod
debout
espér@@
interact
Entrez
1.4
watch@@
reine
minéraux
magistra@@
contrôlés
Feder@@
Personnellement
risen
Yougoslavie
frequ@@
threatens
ophon@@
Event
accord@@
320
acknowledges
tremblement
synthetic
team@@
vécu@@
décer@@
wholeheartedly
Nouvelle-Écosse
Veter@@
visualisation
kios@@
te-t-il
convenir
publisher
bankruptcy
neo@@
expriment
élémentaires
immigrant
restes
aperç@@
entrepreneurship
IST
ы
illo
outskirts
entir
Retourne
bookings
raisonnablement
mobilise
combattants
condamne
Indic@@
vertes
scop@@
50,000
MIDI
instants
assuming
Him@@
56@@
supplying
pée
valleys
Expl@@
toxicom@@
Lunches
Gibraltar
Hass@@
subordin@@
diox@@
opposée
aboard
span
criticised
Safari
morales
springs
Often
Live@@
consortium
IF
4.0
ouvrables
Heart
nord-est
Hosp@@
envisagée
gical
redevances
Jar@@
œuvrer
corridors
unilatérale
géant
traceability
weaker
soucis
werden
critics
d`@@
légiférer
is-je
concessionnaire
socialist
Andrea
Barri@@
racial
sables
north-@@
cosmetic
ravis
hus@@
séparées
mois@@
assault
corridor
و@@
curren@@
hôt@@
éder
peintre
Aff@@
etings
109
ambassad@@
parviendrons
Lehne
BG
idéales
jouant
VAL@@
Securities
certifié
déco@@
xenophobia
Imperial
thematic
Industries
thique
CN
Rock@@
intervalle
Séville
Togo
prendront
firme
74@@
Lama
wag@@
assin
Sophie
humeur
dioc@@
téléchargé
appauv@@
bann@@
climat@@
magné@@
techniquement
coupled
arbitrage
withstanding
INCL@@
nécessitant
percep@@
provinciales
liez
climatis@@
Steel
adul@@
Fin
Demande
plugins
Stri@@
-out
pink
Ih@@
Participants
volets
aposto@@
substantive
affaib@@
Traditional
passons
perdus
deman@@
Poker@@
Jorge
conci@@
Jack@@
soulignant
extrémité
phare
oak
correspon@@
raft
merchandise
techno@@
thouse
fédér@@
commission@@
Heav@@
Contest
osis
balconies
go-@@
weg
Requi@@
critiquer
entirety
slow@@
émergentes
Viol@@
nuis@@
chel@@
Bill@@
crossed
témoigner
concentré
beneath
WITH
eleven
IK@@
pupils
distorsions
Alban@@
Qualité
Groups
atlantique
Prob@@
Malware
binary
vingtaine
Recovery
écri@@
Téléchargez
grip
lumineuses
divisée
standardi@@
rough
Perspective
sponsor@@
ridi@@
gala
sono
envois
unequi@@
WIFI
Languages
más
relie
ppers
Thy@@
Reçois
occidentales
steep
php
accompagnent
atable
rais-je
ر@@
Pouvez-vous
MHz
onwards
abonner
oya
ence-@@
charts
puis@@
brev@@
assembled
nicely
Inspec@@
fût
exclusives
ГЄ@@
tempête
benefiting
sécheresse
tampon
lage
slides
ped@@
oublie
agreeing
interopérabilité
struggling
HU@@
lez-vous
constituerait
Yan@@
Gaz@@
Fur@@
Nouvel
Email
Madeira
favoris
comptabil@@
publicity
rayonnement
facilitates
inéd@@
five-@@
développeur
présid@@
dira
150@@
Russes
campaign@@
vignes
Catalan
spirits
illy
practitioners
limitent
dep@@
Novembre
Command
flood
gérées
198@@
submissions
thy@@
abstract
Mec@@
nouvellement
Various
entraînant
farmer
wheel@@
Ao@@
épou@@
Offici@@
italiennes
365
pér@@
honnêtes
registres
délinquant
dix-@@
rane
hungry
vir
haul
mercy
doubl@@
Ray
anno@@
fores@@
Ely@@
générosité
exporting
Chad
opportune
morte
sécurisée
concluding
democratisation
passager
deep@@
ARD
Vec@@
archaeological
anticipation
affirmant
Entreprise
harmonization
rô@@
º@@
référenc@@
forestières
persuadé
refusing
aining
géomét@@
Bam@@
searches
MOS
improvisation
climb
tele@@
fraîche
registering
tioner
épo@@
odeur
massacres
Upper
Gabriel
xy
magnétique
powder
calend@@
usu@@
alimenter
Gordon
instau@@
dia@@
tness
pres
crits
Italia
teaches
cel
accroît
Tat@@
iv
subsidy
Nation@@
dresse
duplicate
explosive
composite
Cun@@
pétition
orum
delà
cis
barom@@
hn
bourge@@
preceding
kur@@
palm
left-@@
Vou@@
calories
assis@@
liser
retri@@
straightforward
zoo
Nev@@
equitable
Israelis
révoluti@@
écolo@@
PSN
hec@@
therhood
raid
owns
assent
accid@@
suffisent
résumer
dérogations
amendes
Sher@@
ples
dless
épu@@
Pho@@
correspondante
allas
Wa@@
ication
scol@@
aquatiques
scholar@@
disturbing
NOR@@
Ferrero-Waldner
obligatory
utilisable
présentons
rings
affichées
prononcée
exagger@@
o.@@
souven@@
légi@@
deter@@
wide-ranging
Journ@@
rapped
commerçant
privatis@@
intégral
Fallout
LON@@
rebuild
Operation
gr
accueillante
pains
illés
citad@@
Équi@@
prompted
audiovisuel
mousse
banner
logs
obtiennent
30th
encadrement
y&apos;
consume
Evolio
antiques
Conservatoire
donated
Lig@@
Emer@@
Survey
transfrontalières
communisme
menacé
qual@@
abolish
pertaining
nowhere
soutiendra
explanatory
electronically
conditionnement
controll@@
sug@@
uk
kra@@
versus
pouvais
1940
seventh
épar@@
gom@@
primaires
élec@@
BRP
Honor@@
Birmingham
menacées
fléau
indésirables
ons-le
tious
pomme
Electronics
distortion
encourage@@
omissions
cleaned
âmes
Stru@@
award-winning
rever@@
Règ@@
GPL
ness@@
Step
entourant
asi
Tenerife
pluralisme
créatives
république
Exécu@@
préventive
measurements
part-time
ellé
gun@@
basses
consis@@
rénovée
Afri@@
ilt
cartri@@
courag@@
ortho@@
invol@@
Paix
lumières
tunnels
semences
détaillés
feed@@
Stone
millennium
rajou@@
terreur
ute
116
imprimé
chia
TH
fructueuse
Lamy
FIFA
ANS
ambassadeur
abra@@
kel@@
Morgan
condemnation
retrouvé
vulnérable
trio
acional
Parten@@
Emergency
googletag.@@
rani@@
coulis@@
entail
effacer
exhibit
jeuner
undermining
omb@@
multi
potentielle
likewise
resear@@
cited
trades
mentioning
roue
déclarée
dependency
vertic@@
variant
Granada
coordinator
Classe
musician
scape
Imagine
Nouvelles
attain
informing
mounting
récompenses
CT
mariages
25th
comparaisons
2e
Municip@@
ADSL
utilement
Pocket
séparer
PEAR
portez-vous
désolé
s-
décret
kar
publishers
Proce@@
GSM
Quint@@
Ele@@
ि@@
osc@@
rell
nons
démocratiquement
Volvo
migrations
aly
Lakes
config
Herman
sérénité
3,5
alim@@
Hend@@
deluxe
pg
emas
idité
fleur
bishop
régular@@
parvenons
Equipment
20,000
estin
omission
pic
anno
nord-ouest
impres@@
Méd@@
éma
BA@@
850
saunas
Visi@@
banais
enregist@@
Tatatabot
Quar@@
Fourthly
irakien
enjoyment
judgments
linear
directories
Citiz@@
persecu@@
Jacob
roses
cautious
2-star
Évidemment
Letter
fréquentes
Hans
Cr@@
soix@@
HT
Slovak
suggesting
Lexmark
pères
Seulement
logging
fronts
authentication
streaming
Rosa
Designed
Idéal
Vinci
ians
corrupt
instantan@@
poign@@
entally
Links
automation
cofinancement
hob@@
YORK
utilitaires
chanter
2.3
Com
robuste
3ème
plat@@
specialty
Monter@@
Pir@@
Algarve
tribune
margins
Marais
perçue
collèges
crite
informative
Maghreb
ка@@
Proche-Orient
denomin@@
Colo@@
numér@@
voyant
gas@@
oura@@
retombées
castles
ciblées
hell
ouvriers
Lost
capitalist
Baie
achetez
intégr@@
tournois
Nantes
Salz@@
Juifs
intra-@@
travels
annuellement
achète
appearances
tremp@@
pray
BIOS
ôles
Jon@@
leu@@
communiquées
coiffure
Regions
significatives
UNICEF
Écran
Kas@@
prô@@
ébran@@
remedies
bu
tained
favoured
Tol@@
fauna
eco@@
lauré@@
Refuge@@
Auton@@
soulevée
ré-@@
Mohamed
nombres
meur
tateur
ecclé@@
breakdown
cerem@@
Málaga
coupes
concurrent
Mare
sous-sol
aimerions
récip@@
kling
declined
appealing
Cali@@
dictionary
postpon@@
र@@
exten@@
Cours
Bin@@
ECT
odds
Voy@@
freeze
flex@@
Chris@@
déception
cosmétiques
demandera
reimbur@@
amusant
prêtes
renforcent
Suppl@@
entretient
transféré
MV@@
EFA
weak@@
Mobi@@
poignée
Mother
satur@@
tarder
veter@@
cacao
ecommerce
agrément
ри@@
sien
graduated
monopoles
Stic@@
ESA
fili@@
Cox
10,@@
river@@
viral
engageons
Emplo@@
aye
Disponi@@
correspond@@
connects
laps
adapte
honnêteté
uv@@
Rail
opt-out
tough@@
décerné
print@@
divulguer
pétroliers
primordiale
copper
yland
Stran@@
carpet
Punta
A4
L-@@
végétales
seafood
I.
coupl@@
Basé
descente
signataires
Manual
puni@@
prévision
civilization
arrivant
danc@@
nautiques
médiatique
agro-@@
migratoires
distinctes
ingu@@
WEB
Session
2004-@@
rapportant
PV@@
chats
Run
nd
Île
monopolies
ambiguïté
gae
corn
revise
E3
vet@@
sman
enlev@@
SR
evolve
tombé
îtront
Vol
posal
recommandée
adversaire
supportive
tec
avons-nous
Fernando
filets
contribuable
trajec@@
Alsace
consu@@
céramique
Theater
unitaire
Création
traditionnellement
111
écrivain
énoncées
39@@
minu@@
incitations
Con
gateway
recovered
sid
otic
terminate
ematic
expresse
TRO@@
Gs
CR
dégage
packing
Ambi@@
exceeding
isely
chutes
déchi@@
Cano@@
veillé
Snow@@
iterait
soap
contradictoires
enligh@@
duplex
recul@@
Angela
Shu@@
contacting
photographers
Marbella
réciproque
honorer
wan
rejets
colom@@
....@@
timi@@
high-tech
appuyé
reliant
Experts
113
bi-@@
ي@@
ppo
ISS
résume
MIL@@
PricewaterhouseCoopers
Case
Fig@@
total@@
forcée
AGS
trade-@@
devast@@
adversaires
4.5
Jonathan
tap
Adver@@
profitant
préliminaire
monumental
guards
Tell
FHI
Chat
deur
Georgian
cart
Low
yacht
honorables
Aar@@
examinées
seniors
savait
fortress
semi@@
overlook
K.
murdered
erup@@
cans
reformed
percevoir
pédagogique
pointer
bicycl@@
rendues
ecosystem
Greg@@
africaines
premature
trê@@
Rapha@@
décri@@
Walter
useless
lips
belges
Macintosh
statues
pora@@
Television
ites-@@
aggregate
testé
extre@@
unlawful
graisses
détour@@
55@@
flèche
orienté
Jean-Paul
holdings
Alice
forwarded
cats
Barón
classroom
presses
vides
fermentation
ahu
anxi@@
breakthrough
intru@@
towers
baye
NA@@
siég@@
médaille
killings
entraî@@
uniformes
destructive
undermined
Kodak
Delhi
Warsaw
Arctique
Ü@@
génériques
communicating
Ray@@
elly
microwave
lobby@@
allocate
positioning
Dani@@
geomet@@
tuel
Sport@@
éral
enquêter
Emp@@
coque
convivialité
number@@
enty
subsistance
violate
Anthony
orized
inser@@
traumatis@@
pled
iscop@@
fle
12,@@
correspondre
manœuvre
multiplication
usées
prêtre
vod@@
Sag@@
ONUSIDA
dépression
subit
Rate
airy
accounted
dividen@@
finales
contribueront
dh@@
2006-@@
revêtent
egel
réduisent
Archit@@
précédé
intake
Lower
Suivez
factions
conteste
exemplary
thèses
ycle
croissants
recordings
illicite
authentification
menacée
attaché
èvement
vôtre
admissibilité
nationalism
Volume
cotisation
activée
beans
habitations
homici@@
Japonais
humide
allée
porcel@@
prions
Text
weaken
lenti@@
Bishop
matéri@@
Péri@@
gene
ention
Events
invented
protest@@
mien
iii
patented
Madonna
HA
embau@@
Russians
bénévole
juifs
neglected
iries
invitations
Éco@@
gratu@@
Confi@@
contraignante
imm@@
zz
Tyrol
corromp@@
nee@@
Vér@@
Grenoble
sation
recommand@@
conspi@@
evoir
purchaser
Arn@@
Reservations
démocrate
swift
voltage
aluminum
treasures
apar@@
gestes
maximiser
emphasized
ashi
légende
inated
Equality
nin@@
eder@@
Virus
zzi
secur@@
Category
techn@@
escence
cil
tunisi@@
Girl
yearly
désh@@
blan@@
aspire
ficatif
courtes
cancers
ð@@
predict
coaching
rangement
filtration
progressif
érants
désactiver
reinforcing
ineffective
billard
stamp
Scal@@
multilatéral
négligence
le.@@
midd@@
cherchons
engendrer
arming
inquiéter
sely
ampton
marginal
Opening
présidentielles
foire
extraire
fédé@@
RF@@
Alan
Trading
conséqu@@
Engine
folders
1970s
plates-formes
congratu@@
pacifiques
meth@@
crire
struction
multiplier
Vig@@
Ener@@
lèvements
contrer
Conserv@@
diagra@@
illages
OB@@
partagés
fromages
Quarter
vigil@@
diversified
derie
Wis@@
architectu@@
atteind@@
prévaloir
chaise
х
financées
sisters
Techni@@
uer
teri@@
Football
Éducation
Del
asth@@
mies
encrypted
dévou@@
consciousness
atico
Architecture
Bosni@@
Shopping
allon@@
transvers@@
défaite
aval@@
stupid
earing
Globe
Advis@@
garde-@@
répertoires
LIVE
retarder
vieil@@
encoding
exploité
chocs
accredited
interprété
fleets
créatif
Job
finlandaise
poetry
entretiens
édu@@
pôle
réser@@
oro
ashed
passwords
agressions
entur@@
choisissent
valider
approached
emphasises
anner
DRO@@
Integrated
femin@@
approuvées
Saint-Laurent
isait
prehen@@
Ltd.
caoutchouc
lean
allié
faul@@
allegedly
Soumis
creatures
Quin@@
décline
sont-elles
Stream
Already
Juillet
référendums
rics
Programmes
combinations
chrome
vel
misuse
Pâ@@
fourni@@
Possibilité
jol@@
Tremblant
cessez-le-feu
shaping
Economics
diplômes
Christophe
filet
trouvaient
restés
cd
Ban
Flam@@
passerelle
auer
soustra@@
prohibi@@
sembler
territoriaux
gion
clinics
Haut-@@
partagées
chol@@
mè@@
cow
Dalí
use@@
tized
insistance
corrosion
reviennent
saines
remuneration
teuses
SO
minoritaires
tantes
sincères
préhen@@
Dubrovnik
additives
tige
evo
va@@
LIFE
rush
Paler@@
provi@@
Scar@@
GRA@@
Value
experim@@
ecture
musicaux
multiannual
radar
mediation
Script
sar
guée
carro@@
decorative
hygi@@
CFSP
acquises
Canary
В
encour@@
Collins
narro@@
hy
paient
Rehn
handles
renation@@
Platform
cloth
itin@@
viability
13-@@
Cameron
tract
casse
Package
proceeds
1800
Concerning
successor
chef@@
Director@@
Innov@@
craignent
baise
crowded
BIT
égaux
insuffisance
shouldn
5.0
défenseur
ARE@@
collaborate
tais
complètent
opo@@
Cancún
lesser
agissements
ismo
quit
tasse
tendant
per-@@
exploitant
cordes
ila
nis
declining
CFP
obli@@
PF
stan
heu@@
frankly
grandi@@
MPE@@
bation
gesture
tting
OK@@
invitent
précautions
entrave
án@@
insé@@
occupations
gardé
fonts
premiere
dynamism
déro@@
Sheraton
herein
server@@
FF@@
spyware
anced
pizza
wie
ferment
Hein@@
créature
compro@@
reconcile
censé
SQ@@
désol@@
Blue@@
soli@@
spokes@@
anal
democ@@
RU@@
voluntarily
quests
microbi@@
accelerated
aa
cely
sain@@
discré@@
gastronomic
onies
08@@
Régime
contractu@@
Ign@@
Current
amuser
Göteborg
flesh
eas
conclut
detrimental
sail
ô
Spon@@
camion
angu@@
SM
Sm@@
129
[...]
